[PAD]
[UNK]
[CLS]
[SEP]
[MASK]
!
"
#
$
%
&
'
(
)
*
+
,
-
.
/
0
1
2
3
4
5
6
7
8
9
:
;
<
=
>
?
@
[
\
]
^
_
`
a
b
c
d
e
f
g
h
i
j
k
l
m
n
o
p
q
r
s
t
u
v
w
x
y
z
{
|
}
~
£
¤
¥
§
¨
©
«
¬
®
°
±
²
³
´
µ
·
¹
º
»
¼
½
¾
¿
×
æ
ð
÷
ø
ı
ł
ŋ
œ
ŧ
ƒ
ƕ
ƫ
ɐ
ɖ
ə
ɜ
ɡ
ɪ
ɮ
ɽ
ʉ
ʊ
ʛ
ʾ
ː
α
β
γ
δ
ε
η
θ
ι
κ
λ
μ
ν
ξ
ο
π
ρ
ς
σ
τ
υ
φ
χ
ψ
ω
ϟ
ϵ
а
б
в
г
д
е
з
и
к
л
н
о
п
р
с
т
у
ф
х
ц
ч
ы
ь
ю
я
ҿ
א
ב
ד
ה
ו
י
כ
ס
פ
ק
ר
ש
ת
؟
ا
ب
ة
ت
ث
ج
ح
خ
د
ذ
ر
ز
س
ش
ص
ظ
ع
غ
ـ
ف
ق
ك
ل
م
ن
ه
و
ى
ي
ک
ی
ः
अ
आ
इ
ई
उ
ऋ
ए
ऐ
औ
क
ख
ग
च
ज
ट
ठ
ड
ण
त
थ
द
ध
न
प
फ
ब
भ
म
य
र
ल
व
श
ष
स
ह
ा
ि
ी
ो
ॐ
।
३
६
ড
ত
য
স
হ
া
ি
ਬ
ਰ
ਸ
ଇ
କ
ଧ
ର
ା
அ
ஆ
இ
எ
க
ங
ச
ட
ண
த
ந
ன
ப
ம
ய
ர
ற
ல
ள
ழ
வ
ா
ி
ு
ெ
ே
ை
అ
జ
ణ
న
మ
ర
వ
ూ
ಕ
ಗ
ಟ
ತ
ಬ
ಮ
ರ
ವ
ಾ
ು
ೂ
ക
ച
ട
ധ
ര
റ
സ
ാ
ി
േ
ൺ
ർ
ൾ
ก
ค
ง
จ
ช
ซ
ต
ท
น
บ
ป
พ
ฟ
ม
ย
ร
ล
ว
ส
ห
อ
า
ำ
เ
แ
โ
ใ
ไ
ཡ
ᄀ
ᄁ
ᄂ
ᄃ
ᄅ
ᄆ
ᄇ
ᄉ
ᄋ
ᄌ
ᄍ
ᄎ
ᄏ
ᄐ
ᄒ
ᅡ
ᅢ
ᅥ
ᅦ
ᅧ
ᅩ
ᅪ
ᅫ
ᅭ
ᅮ
ᅱ
ᅳ
ᅵ
ᆨ
ᆫ
ᆭ
ᆯ
ᆷ
ᆻ
ᆼ
ᇂ
ដ
ផ
រ
ែ
‑
–
—
‖
‘
’
“
”
•
…
′
″
⁄
⁴
₅
€
₹
℃
℅
ℝ
℞
™
→
∀
∂
∃
∅
∆
∈
−
∖
√
∝
∞
∠
∧
∨
∩
∪
∫
≈
≜
≡
≤
≥
⊂
⊃
⊆
⊇
⌉
╥
◾
☉
☐
☺
♎
♥
⚡
⚪
✂
✢
➡
➰
⺈
、
。
「
」
〖
〗
〽
あ
い
う
か
き
く
こ
さ
し
す
せ
そ
た
っ
つ
て
と
な
に
の
は
ひ
ほ
ま
み
も
や
ら
る
れ
を
ん
イ
ク
シ
ト
フ
ホ
ン
ㄴ
ㅇ
ㅋ
ㅐ
㊗
㊙
㎡
一
丁
三
上
下
不
与
世
东
个
中
主
久
么
义
之
乐
也
买
乾
了
二
亚
些
交
亮
人
什
仁
从
付
以
们
仰
任
份
伐
休
会
伝
伤
伯
位
体
何
你
使
來
例
便
修
做
傷
傻
僕
儿
允
先
兔
入
內
公
共
关
兴
其
内
冉
冷
几
出
分
刚
利
别
制
則
功
动
動
勿
十
南
卡
印
即
卷
历
厚
去
县
又
友
反
口
另
叫
可
吃
合
吉
后
吐
向
君
吴
员
呵
哥
唱
啪
啬
喝
回
国
土
在
地
坏
型
城
壁
夏
外
多
夜
夢
大
天
太
失
女
好
如
妈
妙
妮
子
字
存
学
安
宋
客
家
寂
寒
寞
对
导
封
将
小
少
尚
就
尼
局
居
島
州
工
左
己
师
常
帽
干
平
年
幸
序
度
廉
建
开
弱
形
往
很
律
得
循
心
必
忍
忘
怀
思
性
恋
恬
悄
情
惊
想
愁
意
愛
感
懂
戏
成
我
战
手
才
打
扣
押
抽
拍
招
持
插
摄
撑
支
收
改
放
政
整
文
斯
方
族
无
日
旮
时
易
星
是
晚
晶
智
暧
最
有
朋
朝
本
术
杂
权
杨
杵
果
柳
校
核
格
栽
桂
森
極
槽
横
欺
步
歪
毒
比
毕
民
气
氣
水
汉
沓
没
治
法
洞
海
消
淡
港
游
満
满
漢
潘
澎
澳
激
火
点
為
炼
烤
無
然
煥
熱
燥
爱
片
独
狼
猫
王
玲
理
用
画
疑
病
痴
白
百
的
皮
目
看
真
睨
睹
瞎
知
砖
碰
礼
社
神
福
秀
科
窩
竟
笑
筋
答
簷
粘
精
系
経
緣
级
统
缅
缘
美
翩
翻
老
耻
胖
能
脏
脑
腰
腻
膜
自
色
艾
花
苦
草
荧
莉
莫
菁
華
萌
萎
著
虫
蝉
螂
行
袋
西
要
見
親
规
角
言
話
語
諸
證
譬
计
让
许
译
语
诱
说
课
谁
象
货
质
购
贰
赋
赤
走
赵
起
超
践
踏
身
転
轴
辣
边
达
过
还
这
进
迷
逆
這
通
逢
逼
運
達
那
醉
释
野
量
釣
针
钢
铁
锋
长
開
閣
问
阿
陰
隐
隔
隙
难
雅
需
霍
露
静
靠
面
音
頼
风
首
香
骂
骗
骚
高
魔
魚
鲜
鸡
鸭
鹵
麽
黑
鼠
齐
ﬁ
（
）
，
－
？
￦
￼
##o
##l
##i
##c
##t
##r
##s
##a
##n
##g
##0
##6
##7
##e
##u
##z
##k
##v
##w
##d
##p
##1
##m
##h
##5
##8
##y
##f
##x
##b
##र
##व
##ि
##श
##ष
##ण
##4
##9
##2
##j
##3
##q
##о
##к
##т
##р
##₹
##→
##μ
##²
##θ
##°
##½
##ா
##த
##ட
##´
##π
##÷
##д
##º
##√
##ा
##ल
##ी
##∀
##∝
##®
##€
##¨
##ا
##ذ
##म
##क
##ो
##ट
##×
##て
##ほ
##し
##い
##ब
##ह
##न
##ತ
##ಮ
##ل
##ع
##ظ
##ي
##م
##แ
##ล
##ว
##ก
##น
##ر
##س
##ن
##≥
##∩
##ı
##ର
##あ
##る
##も
##ら
##う
##￼
##ᅳ
##ᄅ
##ᅥ
##ᆫ
##ᄃ
##ᅦ
##द
##त
##ழ
##د
##प
##य
##ฟ
##ร
##ไ
##พ
##ย
##า
##บ
##ท
##ᅡ
##ᄌ
##ᅵ
##ᄆ
##а
##в
##с
##у
##и
##е
##л
##н
##ø
##➡
##ཡ
##ز
##∂
##ख
##ん
##た
##ซ
##เ
##φ
##ʉ
##ʛ
##ƕ
##−
##ㄴ
##ㅇ
##ف
##ـ
##غ
##ω
##の
##く
##ه
##च
##ำ
##ค
##ง
##ت
##स
##ड
##ش
##ب
##ग
##ன
##ை
##வ
##ர
##ு
##க
##ம
##ಗ
##ː
##भ
##ज
##י
##ס
##β
##α
##ι
##ν
##ο
##ε
##ك
##я
##ь
##χ
##σ
##ே
##ண
##ث
##ق
##و
##ч
##ю
##з
##ה
##ו
##ק
##ใ
##จ
##ม
##ᆯ
##ᄁ
##ᄋ
##ᅭ
##£
##г
##ி
##ல
##≤
##ц
##ʊ
##ः
##п
##б
##ವ
##ध
##อ
##そ
##か
##ص
##ی
##ר
##ة
##な
##خ
##℅
##れ
##ま
##थ
##ج
##ᅮ
##ᅱ
##ᄀ
##ᄏ
##ᅩ
##ᄉ
##¬
##ρ
##κ
##λ
##η
##ς
##ə
##ð
##ൺ
##ച
##ി
##ര
##ാ
##ى
##ూ
##జ
##వ
##ణ
##∧
##ங
##±
##ᅫ
##ᄂ
##ᄎ
##ᆼ
##ד
##ы
##™
##ł
##ந
##ਬ
##ਰ
##ई
##സ
##റ
##τ
##ป
##ส
##ต
##ひ
##㎡
##ெ
##ற
##६
##ठ
##と
##ホ
##イ
##ン
##ト
##ᄐ
##ح
##ช
##み
##や
##す
##פ
##㊙
##㊗
##さ
##ಾ
##ರ
##ು
##ಕ
##ಟ
##っ
##ᆻ
##∞
##ய
##ச
##ᆨ
##ᄍ
##ᇂ
##ᅪ
##ᆷ
##ᄒ
##ᆭ
##ए
##υ
##³
##ധ
##േ
##כ
##ת
##℃
##য
##া
##ড
##হ
##ɪ
##ŋ
##अ
##つ
##は
##フ
##ർ
##ക
##ൾ
##₅
##ŧ
##ப
##ள
##¹
##ೂ
##⊆
##ত
##ি
##ƒ
##ᅢ
##∆
##ک
##こ
##⚪
##ҿ
##ϟ
##ɮ
##☉
##∪
##æ
##х
##ᅧ
##ర
##ែ
##រ
##⁄
##¥
##を
##ା
##ଇ
##⁴
##at
##he
wh
##re
the
##in
##es
##an
##er
##on
what
in
##ou
##or
##ow
is
##en
do
##ing
to
an
##ar
how
##al
##it
##om
##ic
of
##st
##le
are
##et
##ed
and
you
##ion
can
##ve
##est
for
##il
th
##as
##ld
on
##ac
##is
be
##ro
##ent
st
##oo
##el
##id
why
##am
it
##ot
##ay
##ome
my
##ec
##ould
best
ha
li
##ke
##ir
##ter
##ol
##ver
##ig
##ce
re
##ad
sh
does
##op
##ly
mo
##ut
some
##se
##ith
##ation
##di
##ur
or
we
##one
##ill
##ri
with
pro
##ag
##ch
com
##pp
##if
##ear
##ich
##im
whe
##fe
##um
get
if
which
indi
fr
qu
##ate
ma
have
ex
ch
that
##00
should
tr
##ct
##nt
##ul
wor
me
as
##ers
de
##us
##th
con
en
##ine
your
from
at
##ood
##ant
ne
##ist
##out
##are
##ess
##os
not
al
##ble
##mp
un
bet
##res
us
comp
##art
##ie
##ect
so
india
##ap
will
pe
##ook
##ies
su
##igh
who
##her
ab
##ment
##ack
peop
when
people
##un
##ind
dif
se
##ang
like
am
go
good
way
##ity
##ren
##ive
sp
##end
##age
would
##ain
lo
there
##and
any
pl
##we
diffe
af
##ight
##ort
##ore
ac
##ions
man
eng
##ical
about
ph
sc
##lo
##ite
##ip
##ween
between
one
##ak
he
##ure
##ount
##ong
int
did
##act
most
imp
##ud
##ast
app
##ora
##ard
##now
##ace
make
lear
learn
ad
quora
##all
pre
##ass
20
was
by
where
tim
##ide
##ink
##ans
know
cl
##ial
co
##ell
work
fe
##ice
##ust
##ra
ever
##ram
##ish
##ia
mar
life
jo
don
differen
##der
le
##our
##iv
##ence
they
##ile
after
##ry
201
##oney
##ge
##ally
time
##ail
start
year
this
##qu
##vel
##av
money
new
##gh
all
##ck
##pt
##ary
##ab
##ff
acc
has
up
bec
##ame
##ber
ar
gr
exp
use
difference
mu
##ance
##ther
inter
thing
##irl
ta
te
res
inst
##ics
##uy
think
stud
quest
##od
##bs
##ech
##iz
happ
##vie
##ump
bl
much
mean
girl
##riend
##em
##ire
book
##ue
##nd
someone
col
out
their
##lect
ear
##og
engine
per
rec
pos
pres
many
other
day
##ase
##ign
##up
##ree
than
##du
##ated
##ub
find
##line
but
po
want
##les
##000
exam
##ach
indian
##si
trump
##int
pr
##rent
##ath
##able
##ations
fir
sy
more
happen
##ep
##ru
##ult
rel
pers
world
ser
sa
##ous
##iver
cont
without
br
dis
feel
become
che
##erm
wr
##ound
online
##ick
first
better
##ory
engineer
person
##ors
##lish
##ft
prog
elect
count
wat
ban
##ph
##ough
off
##ident
program
over
cons
##red
mark
##de
comm
##ress
des
inc
no
##ces
act
job
compan
sm
inv
need
english
##book
univer
##sible
pol
account
impro
##ting
##ord
ev
into
under
could
buy
prep
ag
##ving
love
##orm
vis
bo
2016
##elf
num
fl
take
##reat
##own
face
improve
war
long
car
them
ca
possible
##ience
mon
##hip
em
##ild
##ict
wom
ask
##ald
##iness
old
chang
##gle
friend
lang
eff
bus
langu
president
500
things
questions
compare
her
cal
##let
##ian
notes
##ool
phone
cur
sex
pass
##ade
##ert
##olog
goo
weight
student
##ning
part
tech
were
##cess
really
##ages
ways
engineering
1000
##ee
##ities
##ual
tra
used
ans
##ens
donald
##lic
google
##king
stop
##ating
##velop
##view
business
mus
webs
develop
real
spe
##ient
##yp
hel
intern
being
back
sk
programm
fun
different
import
bel
univers
she
##ata
number
##eric
att
colle
chin
##oc
##ys
top
##eth
just
effect
la
look
sol
tw
americ
med
##ful
using
##ific
##phone
win
his
##its
##ples
black
sch
see
##ject
play
cr
every
inf
##ates
help
read
thr
facebook
books
answ
mat
ro
rep
free
say
dec
10
op
language
now
lose
##gy
movie
sim
##led
##con
study
soc
down
##orn
##rest
##duct
been
market
##cy
inte
##stem
word
sal
ke
##low
had
##iss
eas
hum
##ix
##vice
ve
gen
question
system
its
cre
rem
##way
big
##ts
years
##ism
##ular
##ational
##agram
##uter
mov
going
sec
prof
##ware
##fer
emp
still
programming
maj
add
trans
month
school
##fore
only
##ons
instagram
care
supp
aff
company
change
vide
##kes
invest
##ose
cor
computer
incre
card
before
hack
movies
women
blo
##apt
prepare
##ond
hill
##ely
str
cour
pri
reg
earth
bad
##ower
##ise
##roid
##ows
pur
##ology
college
##friend
av
rs
char
##use
red
##ures
##ese
##inton
plan
##iting
pay
android
##mon
exper
##ba
clinton
examples
guy
##xt
##ash
math
high
im
country
class
##ited
form
interest
live
bu
##uring
##ily
test
##self
##ments
min
##ative
while
website
##urn
gover
our
iphone
##ites
prop
soft
ind
ide
rup
song
##ery
##als
##ne
learning
##ition
##ution
govern
##co
data
typ
exist
##day
##loy
mot
##ody
bas
##wn
important
##get
##load
through
grad
bi
##ees
del
ins
dep
##ark
air
vie
product
men
view
##ollow
##ps
again
##alth
made
hillary
##ms
increase
net
same
dr
software
bank
det
science
right
##hi
fast
##ene
earn
electr
water
##sc
##app
travel
techn
fav
##gest
##ake
watch
leg
two
##iet
follow
dri
own
fin
##bile
great
place
relations
econ
##me
government
econom
##ced
mess
sing
##istan
fact
employ
bat
##ital
during
##ale
##ss
##rop
sur
##az
##ices
interview
end
bre
ho
lapt
design
laptop
hot
mobile
ener
phot
##rol
##word
##ract
tell
adv
home
##ize
prov
##ones
##io
hand
##iest
hard
cam
ob
fam
##earch
energy
mast
name
##gin
##ually
sign
##ork
relationship
give
reas
cat
##ically
##hes
university
##rib
pak
anyone
cent
##ream
social
affect
web
val
##tle
som
##ption
process
delet
getting
hair
##ger
him
cost
fil
##ious
har
##ieve
##verage
answer
##gn
child
hist
##ute
pakistan
law
food
##ries
rid
proble
##gs
health
companies
sub
even
speak
##man
friends
true
china
##ube
post
##ames
bang
meaning
come
fat
average
pop
download
days
##ved
then
sw
term
gre
doing
visit
requ
eat
2017
human
career
##aut
list
power
##ah
gener
##gr
mind
##aph
ps
yout
jav
##ips
##ills
non
state
el
boy
##oot
cult
sent
##ality
mech
##rist
run
##ling
video
##aces
usa
##ght
support
##ction
safe
major
write
whats
password
too
spec
anim
suc
tv
##vert
##ried
##cle
youtube
gu
##cept
students
sn
god
##duc
aut
email
##ents
##ider
mechan
ass
##form
fore
##per
doesn
done
##pect
current
working
##ied
rupee
tal
pub
experience
##lim
less
dist
##bo
##leep
game
happens
keep
favor
wind
girls
##ote
ent
build
##ten
hear
##ock
having
very
##so
##ull
##ll
call
##ek
gm
service
##anc
modi
fut
##over
##te
##ank
##erman
12
##ines
15
##bi
whatsapp
##ave
##ala
##ired
countries
dig
ret
let
control
##ways
favorite
equ
##oth
##br
phys
body
temp
##ai
##ple
future
##arent
history
ap
last
employees
pain
open
##ner
##land
##wood
sleep
white
beh
tak
##ars
##min
##ural
success
ext
main
bene
giv
hotel
grow
##ric
got
kind
prepar
##ouse
mem
apply
meth
##ings
week
##vices
train
benef
believe
##ral
##hed
##pl
art
tips
skills
smart
show
conf
##thing
##ets
##ves
rest
myself
project
age
election
music
manage
effects
cle
worth
girlfriend
chinese
##cent
remo
java
cou
next
mac
delhi
##lywood
parent
##other
against
##udi
marketing
##cul
##iod
create
mechanical
block
##erat
##ern
##ollywood
differences
met
def
##ization
##ility
review
internet
cap
applic
pros
places
join
makes
interesting
##erc
caus
german
pen
states
educ
police
light
recover
polit
american
##apan
making
commun
##ants
fall
self
japan
##work
anal
period
civ
common
united
##ness
##ists
startup
windows
mic
code
these
##ision
par
begin
cell
##antages
##ik
##vers
gradu
##ield
mor
los
ed
reason
priv
civil
stock
never
chan
deal
score
eu
hy
##air
##ying
salary
##ror
redu
woman
around
dream
avail
each
##ories
##ier
quick
bro
set
pregn
attract
actually
rus
##acter
america
course
##ret
canad
##mat
pot
##ency
series
psy
culture
demon
answers
##ty
##ruct
chem
amaz
looking
gmail
ce
die
someth
available
something
id
mil
##ont
pict
dark
deg
today
##oose
mod
always
##idered
psych
considered
dem
hour
purp
##ards
gain
nat
##ify
pan
another
writing
##osed
opt
##mit
site
sell
##ney
ey
tax
near
19
break
##ffic
months
development
speed
economy
profess
delete
universities
ir
org
won
aust
install
foreign
##itive
jobs
log
parents
found
##ope
##ding
mba
##ird
wif
point
stay
wear
well
type
##alore
note
pun
space
##ges
dru
calcul
lat
##ense
head
dire
##ma
happened
snap
fre
##har
indust
ra
problem
search
idea
sug
ant
move
such
cert
##rect
small
##ause
popular
services
##ently
##urb
grou
je
universe
public
character
level
vir
muslim
bill
drink
##oid
##ush
mach
purpose
##ional
behind
scient
instit
expl
able
iit
mom
living
super
sou
##tc
demonet
worst
wrong
bangalore
py
##nect
##aching
100
writ
songs
##ince
##ven
##ross
##ister
##ama
tou
##ilar
star
education
successful
##ormal
games
##ams
determ
sl
##ange
differ
seen
family
##ead
loc
lit
because
date
put
height
presidential
boyfriend
digital
ms
pat
##ians
##ton
reduce
uk
cause
##ission
mass
##bers
mag
2000
lot
##port
private
websites
send
turn
cred
##uck
expect
instead
asked
technology
majors
ste
apple
share
const
##ipp
order
management
porn
degree
##na
##come
cy
house
saf
connect
##ux
austral
relig
easily
though
curren
similar
apps
hate
##omm
death
international
tri
bar
traffic
##ium
effective
sentence
times
short
facts
##itable
arm
legal
##ien
opp
sour
biggest
based
allow
30
center
talk
kill
city
##thon
complet
cand
deb
pregnant
iss
canada
wal
##tern
##ters
causes
ter
stat
##iety
visa
##hol
nor
ip
calif
californ
currency
sites
vol
##ym
both
choose
##pa
##ses
media
##olution
indians
benefits
compared
python
offic
##sia
christ
story
night
bal
struct
##ug
mix
also
battle
##rat
drug
##ost
dog
##irth
field
##rope
##ift
##cl
##aste
california
europe
machine
##crib
##ogr
gate
##cc
treat
cut
jee
cir
micro
decision
est
stand
normal
##xy
lead
direct
green
##ude
##mar
##ung
##ins
videos
products
pap
accept
##less
depress
terms
step
##iction
ref
alco
correct
remove
alcohol
##lease
resp
strong
given
pc
value
intro
tool
recru
medical
amazon
fix
ones
18
photos
##ib
overcome
humans
000
blog
pract
second
text
ur
preparation
birth
exact
inform
model
phil
partic
react
##chat
ang
function
views
banning
smo
shot
contact
##cri
masturb
must
west
##ior
etc
##icket
profile
low
##read
check
created
##ather
11
##ana
##stand
temperat
##ship
vote
##ds
group
sun
side
pa
##ration
##idence
didn
imm
lin
##ler
called
solar
suggest
hig
rate
##acy
percent
snapchat
drive
##erv
coaching
gold
##ov
impact
rece
brit
research
theory
##ues
##ane
known
prev
sat
##ential
orig
##lock
scre
studi
intell
network
vers
ideas
easiest
fres
##rav
full
organ
physics
beaut
communic
intellig
cheap
##ator
##ograph
file
hours
yourself
##oice
##akes
fight
marri
matter
method
##hab
mist
recruit
16
##urity
##abad
mult
others
ge
meet
avoid
mum
##lam
##ination
credit
##oud
50
ok
land
advice
lar
##ids
trad
##bai
ep
##ible
single
application
desert
australia
easy
ment
quality
ias
2015
anything
200
##utions
brain
understand
germany
tur
link
office
mid
becom
syd
russia
faster
flu
children
bollywood
strate
marks
famous
information
25
wa
suic
sydney
##ails
ast
blood
required
mill
left
track
##anger
rom
solve
##eng
improvement
guys
##ball
south
store
cop
dail
lik
origin
access
size
tor
##imum
poke
creat
##ume
mumbai
daily
brand
messages
cold
##owing
resour
fa
##oms
diff
advantages
courses
kore
##itions
sum
general
institute
attack
neg
distance
options
##mission
prom
studying
key
ver
canc
compet
emot
uber
security
signific
marriage
prot
rupees
##raw
news
##ides
##ized
languages
corru
force
##ety
cust
##aur
##pir
##ification
nu
##ember
address
national
##ives
foot
happy
suicide
port
prec
far
##order
offer
hit
special
##icy
provider
problems
##utes
fem
past
##hing
aw
industry
##uns
started
deleted
iq
pokemon
those
##ron
islam
investment
healthy
source
pet
developer
lost
chemical
oil
safety
exerc
div
di
##ined
commit
vac
suitable
rich
##ks
cit
pu
##hest
er
message
doct
##imate
deep
infin
bit
pack
three
option
skin
##20
appro
says
##ode
consider
repl
##els
gl
often
exactly
jio
##fl
propert
##att
##hemat
##iful
few
explain
colleges
film
mathemat
grav
##que
hind
beautiful
##ased
perform
##ha
convert
gay
words
bra
##leg
likes
activ
electron
##pects
area
analy
il
spend
fac
custom
cri
##den
##body
purs
##cum
color
miss
page
invent
moment
##han
types
##ina
inp
##ounds
##oun
forg
graduate
isn
motiv
##oph
object
##icult
##ape
spot
bab
##bal
nec
##ager
electrical
late
price
##indi
sit
##ified
team
across
heard
hor
married
party
oper
##lement
##ason
ww
##por
reasons
conv
capital
picture
north
##rast
transfer
var
##band
dogs
male
##ulation
emb
prefer
personal
difficult
japanese
##mer
describ
autom
ii
vi
leave
proposed
democ
mal
numbers
host
citiz
training
##ater
line
twit
clear
internship
macbook
enough
rad
screen
may
eating
##ners
female
sil
##mb
opin
bud
penis
nucle
hus
##hen
letter
shop
gala
hindi
youn
obama
loss
oly
coming
feat
exams
##erial
religion
olymp
13
financ
ios
related
##jo
sams
recomm
basic
##bit
recommend
crack
master
gam
chances
cook
hol
moon
samsung
since
##amp
said
wife
ly
diet
##cs
##opath
americans
##ledge
prime
taking
once
##adv
earthqu
##ats
moder
##ndra
##derabad
tow
restaur
cele
paper
quickly
##istics
son
topics
british
nar
##ted
calculate
away
##gor
##era
political
14
##iation
hyderabad
##nam
precaut
financial
precautions
coll
everything
surg
stri
role
balance
hur
nare
sect
everyone
handling
county
celebr
cond
narendra
##pr
##inc
press
funn
users
##etic
inr
sav
changed
comple
upd
##oes
ann
##ta
chance
eg
sound
yes
panel
limit
##ging
rehab
bring
##ising
pune
##tery
##orts
depression
##of
##apore
chann
rank
singapore
installation
exc
please
pi
else
##iate
belly
following
army
17
reading
blocked
fail
corpor
galaxy
##au
select
shotg
communication
quant
negative
##erce
try
experien
cs
paid
bul
disadv
demonetization
twitter
secret
million
speaking
knowledge
present
##xic
hollywood
squ
##gen
cg
enter
blowing
mother
clean
hyp
laws
taken
glo
likely
ill
shotguns
crush
structure
dead
amount
##raft
nra
animals
qual
perman
##unt
resources
##tm
##ases
solution
##ned
fear
fire
vs
board
##grad
##rit
depart
lic
##ison
##ender
blue
##com
season
material
table
salt
photo
algor
terror
earthquake
scope
bh
##ula
contin
algorith
##dle
##ortun
electric
require
graph
thinking
camp
muslims
gift
##la
##ward
##vid
##istic
wants
swit
occ
appear
arch
policy
##ready
disc
hire
already
jew
determine
##ffe
weak
corruption
dest
rac
##ury
##ared
marry
cool
dating
##row
clo
result
currently
studies
##ered
max
##istry
##ided
##soft
##itary
within
##ences
doll
opinion
ball
##etim
admission
officer
ib
##rated
eth
##ored
professional
natural
tam
##li
##ker
hom
grads
san
##aff
least
allowed
##ched
abs
needing
altern
charge
incl
infl
##phones
ker
infinite
forgot
##atient
linux
income
useful
football
husband
##mpt
eye
fund
hold
inpatient
##acher
final
ident
pictures
##sh
passport
eyes
disadvantages
meas
stream
seem
##ability
##ache
##ged
fly
significance
greatest
subject
prevent
favour
dom
user
tools
convers
##nn
front
novel
opportun
necess
##osp
microsoft
inside
den
ach
fake
illeg
tall
##ok
athe
surv
anx
interested
property
##ley
buying
##here
little
teacher
epis
simple
estate
couples
names
##aves
western
tre
##key
lab
seo
moral
wifi
shows
candid
ram
starting
temperatures
strategy
plat
return
hindu
smartphone
nuclear
##rench
span
personality
kar
anc
##ero
heart
cure
mer
written
##sp
##rael
obs
israel
east
##ography
cash
visiting
cricket
##itor
staff
##rap
phd
##mi
cards
kerala
##avy
case
crit
followers
doctor
feeling
listen
memory
close
liber
##adem
teen
formula
expand
device
save
due
french
##ming
stories
##ording
military
fi
##anch
##iple
accounts
potential
favourite
21
preparing
inn
early
mexic
minister
modern
mit
##iable
middle
laun
mb
##uation
slow
##son
illegal
##rab
tea
watching
percentage
towards
##idency
camera
father
##ouble
rele
systems
battery
yet
##ims
##anced
fresher
wall
here
perf
40
core
rev
##ades
weird
print
smoking
##rep
positive
birthday
##cript
fit
ru
necessary
docum
works
repub
running
corporate
##duce
elections
##ensive
mail
enjo
proced
medic
os
effic
milk
tamil
##urance
evidence
##tt
danger
york
coding
outs
afric
magn
ess
##omb
republic
conc
sales
gh
##ox
##ani
anxiety
gas
pil
station
##feren
phones
hp
##rate
reset
poor
##married
unmarried
vacu
upsc
flat
society
global
neet
details
academ
technical
tourist
##otes
individ
ec
gram
among
playing
hal
circ
beginner
touch
schools
##val
##box
chr
provide
##old
##umb
##sib
rock
ssc
tot
chemistry
king
pm
files
intelligence
kids
##arr
##rene
viewed
torrent
young
dat
positions
event
draw
quit
applications
platform
yah
##und
version
morning
vacuum
##ping
pressure
cry
voice
##sel
##ches
##iles
prob
proof
manager
harry
exercise
respon
boo
dub
resol
flight
##ological
certific
sbi
##itar
alone
planning
cancer
told
comb
24
##ains
hyd
mis
##enture
yahoo
acid
anime
projects
sand
##lor
toget
sup
wars
individual
cities
teach
together
##rie
baby
nit
##road
box
##het
##py
pursue
lay
commerce
dangerous
##ague
entrep
##yle
concept
sea
gets
court
ten
remember
minimum
##reneur
root
##water
olympics
marked
replace
##itude
consult
sud
##pal
describe
##uing
rob
enjoy
entrepreneur
##uit
##enger
##inder
protect
##books
fastest
higher
##aw
displ
classes
economics
status
might
##stit
wish
harass
immig
adult
gaming
update
arg
growth
bed
chat
measure
abroad
##ij
chenn
billion
##icks
latest
chennai
cb
masturbation
presidency
example
##iled
practice
attractive
4g
##be
##ffy
according
below
gravity
insurance
##fact
##ancy
trust
tex
image
mathematics
ancient
perfect
##ised
##ino
##ived
events
hole
dy
trying
motor
##ately
weed
ign
cars
purch
##asing
##wal
pupp
##illed
curb
acne
##ished
funniest
##mir
12th
gad
##itect
third
record
coffe
democrat
architect
##ises
##uate
##df
##ival
veget
candy
band
partner
copy
symb
##ysis
becoming
range
undergrad
hacks
##gets
rol
concent
upload
bot
imported
advanced
anti
writer
philos
harassment
coffee
##ham
prove
drop
cla
rent
determined
cup
zero
##fort
ali
coun
glass
cra
##antic
resolution
building
trip
complete
license
symbol
pal
sad
expected
bond
rather
prote
##epend
politics
##selves
foc
##ores
content
##board
##oring
cse
kash
##ex
comes
integr
prospects
influ
opportunities
##rs
##atic
##icle
contrib
defin
##ays
advert
actor
large
trading
plus
particular
innov
engineers
##ief
express
specific
achieve
feed
pron
contrast
highest
okay
independ
rat
spotify
hacker
kashmir
goa
##ctions
##ially
recovery
summer
bur
fig
gst
##ique
##uc
2014
disorder
weeks
steps
cann
planet
uses
drinking
##wor
forget
philipp
hurt
##bon
sudden
ic
phr
##ervation
channel
sq
##ax
##xual
##arm
env
##astic
jun
disco
spanish
##onym
issues
audi
jud
lim
##wered
60
driving
survive
pick
league
needs
potter
arab
##go
##my
##hn
electronics
taffy
room
powerful
tata
vot
four
decl
transl
animal
whether
capt
##face
asian
korea
born
stress
campus
##oss
becomes
efficient
focus
##50
cbse
pow
##ze
christian
pounds
##olved
unt
whole
losing
manu
double
##ipl
needed
importance
##ript
burn
jack
##iance
nothing
regular
competitive
budget
##agon
coast
##ought
developed
driver
dreams
outside
pred
unus
thrones
startups
beginners
##uth
bike
longer
gif
kn
##tech
##assing
saying
frequ
##ga
procedure
##atives
player
finance
departments
datab
aren
stra
regret
viol
answered
embarr
histor
features
hydro
##ece
attend
##ya
tele
cheating
manufact
pit
##off
##uly
recip
sem
##aking
gadgets
native
ug
##press
##par
shar
regard
masters
sometim
gym
##akh
switch
intelligent
##ilt
commerc
boys
astro
subs
position
sexual
##orce
intel
##upid
talking
##hara
issue
flo
fair
##ca
total
##ka
##ghter
physical
psychology
whom
##rum
multiple
crime
mexico
ticket
resolutions
straight
##ny
workout
banks
##back
php
lesser
##gar
ben
##othes
john
hitler
citizens
kiss
changing
russi
server
functions
soci
temperature
##pping
actress
existence
economic
relationships
creative
dam
##zy
##isco
script
psychopath
square
##ivity
lock
harm
tcs
isis
smell
hacking
saltwater
##ifically
completing
jour
means
stre
active
philosoph
##irt
everyday
testing
ele
##iron
peace
princ
mut
respect
elected
unusual
commercial
sports
approach
convince
ital
liqu
##ament
graduation
location
sen
##rm
teeth
programmer
##ground
certificate
sometimes
kv
##uel
loan
speech
mad
##inary
completely
analyt
environ
##ami
frame
feelings
banned
request
mel
ris
via
moving
##gb
##aced
scientific
harv
guitar
cells
maint
accur
##ference
hi
messenger
assist
fresh
rot
reality
virgin
embarrassing
pilot
jes
stupid
heat
##action
apart
##oint
alm
arr
cgl
##da
comfort
themselves
linked
lond
##ria
asking
proper
demand
##med
##oop
reject
expensive
possib
later
london
##eter
##ascript
strongest
korean
addiction
stocks
certain
lower
stars
choice
analysis
soon
javascript
giving
cast
ice
implement
surgical
caste
permanent
dollars
shoes
##dia
debate
truth
consum
designer
wait
invented
occur
khan
loves
##ering
mbbs
anonym
profit
standard
ham
recently
half
ll
receive
database
##ove
base
dc
environment
tar
chick
maths
assoc
rail
topic
legit
restaurants
maximum
tit
##rus
##ength
accident
afford
inspir
hon
path
anger
programs
jesus
##ring
##af
##0000
separ
sahara
##ously
bible
customer
swe
sens
##ught
devices
plant
report
volt
collect
population
came
od
##ls
##isation
##ension
episode
##ky
##arian
reven
neut
drivers
factors
romantic
cab
dress
taste
##otic
grade
##ems
equal
border
stren
##iring
scen
climate
investing
phrase
rub
reach
dev
##adesh
protein
washing
seat
rbi
sche
branch
cats
brother
experiences
kvpy
airl
conduct
dim
##tain
auth
##ole
accepted
algorithms
##ius
##ules
cheapest
philippines
harvard
round
ul
vict
virt
fed
##rial
rights
local
five
sense
##ever
##ali
reservation
minutes
equation
mains
emotions
esp
mart
release
evolution
hands
constit
nam
##dom
##ford
scam
background
entire
amazing
constant
chrome
streng
cp
hu
rout
##ati
impress
cross
##erve
sure
##by
package
road
turkey
##rics
##ecut
##urally
sold
european
businesses
malay
original
gps
rand
##yal
detect
lord
waves
3g
dh
##ither
angel
gifts
astrolo
members
includ
enc
winning
benefit
hang
beat
cloud
recent
carbon
candidate
wed
wire
##ires
##aire
atom
analytics
race
franc
##used
ago
scientist
treatment
##ji
##ably
serious
domain
dau
##ped
##aches
cambo
affected
##craft
##izing
planets
extre
display
tick
clos
sleeping
confidence
thoughts
mental
conversation
launch
gand
##more
ads
client
cannot
##aries
goes
ups
freel
citizen
destro
characteristics
geor
cambodia
refer
muscle
jail
##icles
parts
france
performance
weirdest
historical
meant
cover
exch
chall
du
kid
nc
##uss
cream
##bre
##olk
resume
foods
##oma
##raid
sympt
##grade
received
restaurant
htm
nice
afraid
decide
ipad
shopping
dubai
chicken
bored
six
##know
ghost
knowing
clothes
puppy
led
signs
behav
dro
##uto
acqu
##ured
html
brown
older
virus
medicine
##iano
definition
notice
distrib
##ife
que
esc
philosophy
init
flip
sky
regist
hd
racist
almost
##asm
upv
##itional
elig
attracted
cate
##sl
##ota
aliens
tried
##ster
urine
##cing
repres
respond
dies
##osis
document
dry
fish
lad
##mas
##jet
##ceed
cultural
##paign
journ
iim
investors
sector
##iated
##ilities
##ention
##iment
trade
navy
##gress
##flix
undergraduate
lines
netflix
campaign
##umin
banking
##ators
colour
production
##attoo
street
aspects
funds
requirements
lives
mir
tattoo
##ica
admin
along
iii
ny
##ester
mole
reliable
films
##lands
##where
##itation
chart
gmat
iron
kit
las
learned
blogs
applying
selling
##asa
joke
actors
debit
voltage
##cont
typical
placement
jews
##ances
comment
meat
carry
##ologies
reaction
ble
##mary
##ogn
wordpress
quickbooks
symptoms
gun
length
rap
##uana
spir
serve
funding
caused
strateg
voc
shall
match
extra
surgery
pul
vit
##izz
hotels
quantum
##bits
scrat
condition
pdf
wave
##uff
##verse
atm
paying
publish
##ijuana
dipl
ut
enf
cutoff
narc
sin
##60
##emp
##omp
reliance
wins
veh
calls
paral
naturally
died
wik
##gan
deliver
error
analyst
hide
mi
##cast
goal
syn
generally
viet
##aged
situation
virtual
represent
snow
obsess
80
unique
anymore
depos
promote
rule
francisco
daughter
boot
##eal
##oni
register
grades
argum
dad
wis
relative
haven
results
probability
ai
raj
cyrus
africa
until
gandhi
stan
##iab
moto
essay
22
hr
##wan
##room
##antage
confl
characters
walk
methods
mistake
bomb
vag
went
##inst
##ona
constitution
lon
purchase
vietnam
honey
sap
##ida
usb
marijuana
flow
mistry
astron
russian
unlock
phase
airport
pregnancy
strength
##icon
payment
formed
metal
##olve
unf
usually
load
##odes
##icted
iran
cos
killed
depressed
strike
claim
shouldn
schol
hacked
effectively
##hood
catch
api
operating
comments
union
hiring
rain
##zer
structures
suddenly
destroy
lakh
wake
##ano
##cription
random
ran
rou
brows
continue
##oken
framework
##inal
##agn
pharm
mount
poss
disp
disable
professor
introvert
robot
##ii
##mes
##yl
##eral
skill
transform
handle
mars
changes
conflict
23
##racy
contract
novels
3d
tour
##sequ
weap
images
removed
various
cig
fiction
tank
##eria
mah
attractions
categ
lie
colors
desp
stopped
suggestions
##ecially
somme
##erature
literature
narciss
dual
##duced
prison
entr
horror
ult
colon
valid
gravit
especially
park
contain
species
##ruction
fluently
radio
##working
kolk
style
plane
built
retrie
algorithm
sus
##eler
##idge
overrated
capac
2nd
6s
##lit
##aps
batman
cycle
braz
architecture
linkedin
exchange
fing
##edia
spoken
complex
90
bay
proc
produce
grand
scratch
kolkata
bes
cru
mc
##iding
prem
visitors
regarding
wild
##light
##edy
##rier
upgrade
empire
maintain
tut
##ken
agree
released
rates
##500
##inter
anybody
dise
supply
steel
excel
journal
define
thought
cm
pure
firm
ece
wealth
organic
70
##oral
scale
recogn
prices
connection
treated
tel
##ending
equival
cancel
mur
##vt
brazil
##zz
##kart
##head
above
liquid
fash
unknow
previous
bitco
lyrics
tren
##ob
##cer
truly
##ulf
ground
mutual
dhoni
cigare
hosp
##ann
setting
eggs
ari
bag
calories
sugar
kg
tinder
easier
15000
couple
raise
failure
experienced
identify
wedding
fashion
js
presence
networking
technologies
took
pg
sister
##ended
groups
weakest
##uting
reply
wit
##iqu
forces
alb
disapp
employee
speaker
brah
##vered
permanently
electricity
32
##ciation
alive
feet
materials
1st
##ached
suff
became
resident
evil
developing
legally
lawy
sentences
reviews
community
naruto
mr
wid
##lex
##ooth
appl
action
ibps
entrance
lif
earning
artific
taller
possess
therm
##pper
flash
basis
certification
##to
played
stage
##oll
consequ
placements
joining
gree
##ded
solutions
freed
piece
gender
nation
xbox
##ellow
##ocol
accurate
author
vect
##cies
##ropri
substit
politic
christmas
liberal
limited
either
similarities
alternative
sd
myth
worse
biology
unknown
dut
itself
emails
smoke
sort
bern
len
rules
##erg
tom
looks
##hem
##inate
##elling
ideal
exercises
##ounce
iv
##anes
industrial
democracy
harmful
gravitational
mich
involved
##ensity
##print
##orial
areas
##ictions
suppor
laptops
##oon
##empt
##atory
##ime
nose
kej
gives
selected
haw
somebody
players
##duction
valley
bangl
activities
##contin
mas
pim
asia
manip
redmi
oppos
ric
##olf
execut
scra
2013
libr
##aging
spouse
atheists
tricks
desk
scientifically
artificial
ga
push
##rd
plants
resist
takes
largest
roman
revenue
challen
bache
ub
##alous
emotion
scholars
equivalent
gar
gpa
oce
theories
##riwal
instrum
flag
statement
##cloud
saved
bow
nic
till
tier
temple
sources
audio
router
despite
kejriwal
freedom
ja
domin
jealous
anno
##coming
bits
h1
ion
tend
##inations
##pped
offline
leaders
significant
##like
captain
pas
zone
##ception
##usion
royal
central
canadian
category
sam
##top
adop
wanted
entry
##ipping
##oe
##aving
remain
added
mistakes
##ray
##ued
weather
pret
actual
democratic
discover
named
##jab
theore
##ari
decre
pursuing
ba
tree
forward
scene
generation
painting
failed
academic
beng
cas
dna
lens
##rad
ability
visual
turned
angry
atheist
cu
ring
##hatt
compar
lew
activity
##80
##angle
expert
hero
century
ratio
tickets
consequences
river
##uk
frac
designing
hardest
directly
dar
fant
gur
nut
##ault
loved
199
raw
##prise
35
din
piano
shut
##osexual
aircraft
vel
##rig
exists
taxes
pattern
alien
invited
surface
advantage
points
absol
denom
scholarship
300
loose
mand
##oles
##uted
experiment
masturbate
floor
sociopath
besides
##olar
scar
10th
visitor
broad
religious
##cher
##onald
##iture
stom
##otech
hasn
kne
nasa
ox
pizz
##10
stuff
sequ
stanford
da
hall
##ends
pride
breast
nature
punjab
considering
pronun
flipkart
cro
ss
##dr
##pur
scrap
paypal
painless
shares
vegetarian
oxy
##edi
belong
15k
individuals
venture
yog
cod
conspir
brands
##untu
bull
fan
##elts
##agers
##berg
indones
embed
feature
spirit
az
gb
lift
developers
tired
connected
texas
procrast
fill
##anda
blu
tests
budd
revolution
diploma
amp
fro
##rees
plans
heav
##ducing
networks
strikes
stomach
fur
##irus
cloth
auto
showing
channels
yellow
chip
##ype
dragon
cgpa
boss
density
ielts
mang
mode
conserv
applied
scrapping
lewis
aer
sher
##right
incident
factor
paint
papers
hosting
##icial
motion
edit
calculated
affordable
administ
3rd
ax
bird
##nat
##mm
##lel
uns
watched
format
soul
including
ubuntu
jump
gobi
femin
vision
processor
institutes
washington
huge
discontin
downloading
pronunciation
dying
##iers
##gers
##iler
habits
amb
fee
##dule
##ternal
graphic
oxygen
element
icloud
##unk
airb
officers
angular
percentile
egg
risk
##icing
airpl
articles
wearing
motivated
wikip
eb
furn
kong
wi
##eless
button
poly
repair
indic
centre
broke
advertise
strategies
wikipedia
cope
dent
nations
oct
tes
blind
logic
luck
tag
vice
heavy
##ifications
##rete
##isc
antiv
barack
petrol
dani
##ply
primary
direction
possibility
obsessed
supporters
statistics
circle
section
expanding
jam
lack
##sis
##jp
withd
chair
syria
seeing
bigger
interviews
editing
located
faux
silicon
circuit
eligible
tab
##jee
neu
celebrate
grammar
counter
influence
freelanc
sport
levels
doctors
target
vagina
antivirus
gap
les
naz
roo
##mark
##atically
##bert
pakistani
keyword
episodes
btech
##ony
happening
supre
behavior
vehicle
hong
##uration
lake
genu
ethical
flying
independent
egy
##put
cheat
electoral
passion
growing
explan
practical
mention
bernie
pizza
nik
##bel
belief
painful
terrorism
sanders
astronaut
daniel
egypt
aad
##ansion
graphics
candidates
documents
disease
brahmin
vp
##rant
tested
motivate
alternatives
##ropriate
aware
##rom
sever
plastic
expansion
simply
masturbating
font
##lin
##orage
##acle
govt
instant
ceo
dollar
anonymous
jan
##cles
##gre
rice
vl
##fa
twice
member
breaking
satis
fluent
extrem
infos
transaction
investor
profession
construction
magnetic
conspiracy
consc
magic
greek
cc
et
figh
ka
##bor
keeps
threat
habit
##hern
cogn
photography
generate
broken
corrupt
uri
##etry
chur
unable
##ively
passed
imag
processing
retail
scientists
sql
##iques
trib
₹1
profitable
swim
drugs
crimin
##ae
dont
arri
finding
responsible
veloc
dell
dram
##cular
shape
##ipur
interact
##asht
boost
immigration
browser
tesla
gd
ty
town
shirt
##ulate
scot
friendly
jer
jim
nom
##adu
aspir
arts
syll
resource
parallel
withdraw
infosys
lying
pull
vill
##list
##rt
ship
external
adm
club
repe
falling
include
figure
neutr
bitcoin
ek
unif
##abul
acceler
winter
obtain
periods
ipod
leader
ko
##nic
##iny
chain
worry
whose
theme
logo
credits
www
holes
homosexual
retrieve
hospital
apt
##arter
##iling
storage
chess
triangle
vector
##rets
##outh
##ara
unit
seed
shep
paytm
orgasm
creating
supreme
hell
iits
##zona
inde
congress
particularly
rio
##pro
##bra
##ums
accenture
longest
arizona
furniture
velocity
##js
therap
tooth
##oos
arn
hob
particles
properties
##etime
deposit
neuro
wise
##arch
nepal
musk
submit
walking
satell
qualities
frequency
princip
bought
##pap
stack
article
volume
pump
chand
defe
##une
subt
letters
physically
##ovo
figures
italy
##break
shepher
sons
waste
##hel
##orrow
posts
emotional
funny
republican
gone
island
unex
jokes
monitor
computers
penal
selection
astrology
weapons
ju
mp
##ket
scan
debt
fixed
studio
described
ncr
fo
sight
##unes
progress
magaz
recommended
jewish
bott
hydrogen
explanation
46
ber
css
internal
mathematical
gear
techniques
elon
laser
vocabul
vocabulary
bsc
##ja
dislike
factory
smartphones
demonetisation
##uits
##do
goals
arv
firms
equity
teenager
##inct
shy
##aka
clash
bachelor
##mad
alph
senior
wireless
clothing
syllab
der
sept
warming
prior
completed
george
lenovo
desktop
dumb
fine
##pm
##aked
##iva
output
advis
grey
criteria
executive
ni
elements
tutorial
embedded
uniform
##ingu
reference
mini
travelling
##ugu
saving
enterprise
powers
finger
bangladesh
conscious
beer
chocol
england
##activ
upcoming
supposed
##pected
australian
african
rejected
##otechn
shepherd
arvind
rh
##ston
##fered
marath
butter
underrated
advertising
h1b
bengal
45
cub
cath
eve
rah
##men
latin
divided
grammat
ocean
26
clock
ven
wine
##arge
##iday
##ago
except
cris
legs
signal
swed
celebrities
concentrate
gos
##xit
##ita
##iders
orient
prostit
arrest
poll
strang
minute
insp
department
extremely
bjp
spo
knows
resign
offers
monthly
confident
contacts
missing
syllabus
binary
cable
##tr
##hop
neigh
string
educational
mirror
cv
##ein
##mc
##bed
##vey
scared
chest
independence
assistant
fantas
luc
##cil
items
quotes
spons
taught
prank
secure
brexit
##aphy
optim
subjects
manufacturing
damage
27
mig
rings
##log
helpful
diesel
sherlock
ak
##pe
##ola
amend
forever
##pective
##erator
cow
itunes
heal
humanity
promot
seems
teachers
discovered
na
##estic
maps
examination
meditation
affair
breed
innovations
annoying
lect
ui
wing
##life
##eem
empty
values
calling
confir
steve
britain
pimples
##nc
##itors
mahab
##rupt
december
retire
scenes
lawyer
ola
##lished
minor
owner
linear
wood
##any
##omi
thick
shown
##sey
##dium
saw
digit
copyright
delivery
yoga
##otechnology
##gl
mos
computing
abol
##iving
##ricult
territ
instrument
kh
##wing
comedy
conver
wash
agricult
asks
veg
followed
christians
faith
sqrt
recipe
##urs
deactiv
unb
spain
mostly
admit
relation
partners
wallet
critic
knew
corn
##erved
reverse
agency
redd
ps4
guide
academy
twe
##ots
##olic
placed
appoint
##raine
feels
solid
finish
##fficient
bullet
expands
martial
genuine
church
rene
tan
##ario
##ada
professors
religions
diam
##ttes
separate
airlines
ded
fif
rational
artist
scored
fields
tablet
registered
b2
node
##gling
##wami
##rel
canon
##amin
##ching
scand
accomp
industries
cigarettes
28
cree
diab
rare
sick
##uary
##roc
willi
command
ready
keyboard
opposite
unexpected
fuel
rise
##rif
belie
microw
headphones
official
goswami
mahabhar
quote
##anta
spring
engines
oldest
justice
charging
advance
friendship
lessons
dynam
nag
ride
₹500
##kal
stores
##unch
coins
disney
existing
beneficial
patient
models
tenn
voting
citizenship
arnab
aug
ple
wip
##ns
##bour
offered
stick
##idden
ligh
compon
medium
movement
circum
##ibility
atomic
kick
##30
thesis
printer
flav
restr
writers
silver
efficiently
malaysia
bs
xia
##ael
##ua
##jac
beard
quor
singh
refrig
turning
routine
queen
mouth
sir
poem
transg
traveling
subst
facial
predict
properly
dial
zeal
##40
##rix
manaphy
logical
automation
terrorist
concentration
translate
jackson
aptitude
aud
dil
##encies
oral
split
##rug
accounting
simpl
succeed
director
introduce
##ounder
occup
federal
99
cd
ren
fees
boards
soccer
##roll
talent
electronic
inventions
dance
sodium
goods
happiness
medals
infect
depend
edge
killing
hinduism
pretty
satisf
5s
##care
##ado
olympic
michael
gi
tas
##jar
stam
compos
2012
acting
improved
##ologist
realize
programmers
answering
psychological
streaming
chocolate
door
##dies
oracle
##ivered
attempt
affil
apache
slit
younger
widely
dj
nav
mys
compl
##aster
agent
monet
universal
transport
provides
introducing
particle
illness
consulting
##hammad
indonesia
icon
oven
##iced
seats
implic
delivered
himself
immedi
response
title
ruby
substitute
library
procrastination
gdp
subtit
transgender
immediately
cases
ira
jet
##ici
##edies
export
##issions
region
highly
propos
existed
msc
shock
##imb
##ensions
arguments
cuis
zealand
nba
ol
toe
##isions
##ully
suit
musical
foreigners
demonetize
waiting
fitness
palest
associated
accidentally
sar
tum
tiles
##power
thigh
appropriate
differently
opening
spending
celebrity
savings
domestic
concepts
judge
semester
railways
lonely
xiaomi
##kin
##force
##inated
buff
extract
##ommerce
attacks
concrete
ah
fel
hat
ies
##wards
##dy
##ipop
2010
basket
assum
divorce
faced
weakness
honest
ivy
vpn
cart
dish
scal
teaching
kept
liter
printing
bath
nfl
leaving
majority
cyber
mentally
declare
christianity
manufacture
psychopaths
accomplish
mort
norm
ronald
##vant
compound
cheese
hadoop
islamic
ugly
subscrib
₹1000
29
baking
fest
i5
pool
sans
##zuel
##etooth
ash
unlim
soda
marvel
dishes
attention
biased
kinds
safely
identity
superman
crazy
##garh
distribution
theoret
bluetooth
dsl
##uce
interp
remedies
classical
forms
biotechnology
150
config
mixed
seconds
versa
automatically
returns
essential
richest
unlimited
fal
pin
fruit
##usive
suck
2020
pradesh
sms
backup
solving
filter
photoshop
september
fet
vene
##rish
thro
wheel
asse
click
diss
removal
breakup
successfully
tracking
billionaire
junior
venezuel
aim
diver
nano
pages
##kar
##ql
##ania
adapt
cake
lady
fighter
cuisine
lam
rape
##omy
##allow
starts
speakers
confused
ethnic
challenges
ebay
microwave
complain
hous
hung
kap
tat
##nb
##ziest
##irts
##uls
wouldn
##izon
helps
approx
grammatically
crisis
reddit
loll
##anas
##sters
chlor
accent
provided
babies
drawing
translation
upvotes
enfield
further
criminal
oc
franch
trick
clust
kil
ns
##ops
##agle
designed
gujar
degrees
screens
shoot
enh
held
thank
overall
wales
stronger
cupc
recipes
nyc
jimmy
venezuela
es
einst
pill
sperm
proud
decided
ukraine
continu
republicans
jaipur
lollipop
shift
weigh
##apse
posted
restore
refund
fighting
input
arabic
subtitles
gs
lux
##iat
bear
##opes
##ansas
tai
caught
particip
discuss
bonds
sharing
clients
decrease
absolute
dav
dump
##mber
##bian
angle
chief
plays
markets
traditional
concern
emotionally
einstein
rum
##obe
##iter
thin
##onto
searching
moments
golden
freshers
contribute
heaven
55
hond
kin
lakes
##ule
##kers
10k
sale
sending
newspap
johnson
buddh
boring
cot
uf
##vision
##yn
##ille
lies
quad
tells
childhood
beginning
neck
founder
sout
##war
ord
##ifier
plot
secrets
sony
millionaire
powder
lakhs
susp
juice
nadu
##bull
##alled
shower
spy
butt
commission
polar
muscles
putin
officejet
karma
sequence
ath
ejac
jay
nick
##och
##gia
##bu
##ban
##ortion
##aceut
clans
saudi
coup
heads
liked
schedule
cine
fully
nort
vad
##rian
cock
parties
classic
basics
mechanics
calculus
freshman
fell
kal
mam
##vember
##isgarh
##uru
##anged
interface
november
airprint
electrons
customers
innovative
scripting
railway
pharmaceut
administration
4620
fold
gt
pills
rab
ux
##rec
spread
lau
toronto
inspirational
denomination
index
64
gave
ranger
##ening
conservative
amendment
pharmaceutical
dot
map
flor
formal
meeting
awes
##ubs
##uations
chi
##ctc
##erson
bio
skinny
ww2
craziest
italian
politician
##che
##ked
##hold
##real
beach
##iff
muhammad
disk
decent
increasing
airplane
##ey
##wl
chhatt
couldn
swift
irctc
##ucks
geography
glasses
pronounce
ugc
cosm
ultimate
basketball
bacter
fbi
jon
##star
cant
notification
abuse
manual
impos
2018
genius
owners
employer
gods
beauty
nikon
implications
florida
chhattisgarh
mong
orbit
compat
clin
cheated
charged
wonder
patent
diagn
infinity
facing
fundament
lights
turb
##night
##pc
shiva
##illa
frust
careers
obc
editor
pitbull
axis
assemb
pic
consist
consume
nowad
stranger
greater
30k
kingdom
borderline
##net
pee
whenever
prize
charges
specifically
assass
physic
cooking
consultant
entrepreneurs
soldiers
duty
renew
throat
31
fab
##wa
##vere
charger
costs
punish
massage
multi
integrate
lesbian
diabet
enhance
nowadays
pink
##aid
##ature
##icago
produced
spin
booking
chewing
crow
ibm
ronaldo
hed
rude
sr
tu
excl
##ares
alumin
spect
worked
poker
inches
eval
regul
settle
organization
wwii
bhag
frequently
ranking
capacity
400
bip
coo
ray
sib
##70
##rible
##osc
proven
elim
paran
objects
sweet
constantly
components
iraq
iims
##fast
##bl
shoo
ark
smile
batch
norway
understanding
motivation
racism
actresses
dslr
##asc
##eline
##aks
##cket
carrier
robert
supporting
dreaming
mahabharata
awesome
cfa
ire
vine
##cut
##acing
adobe
posting
lesson
metro
11th
ecommerce
layer
##gaon
penalty
bru
phen
##cat
stuck
myst
friction
compress
##isms
harder
texts
ignore
fantasy
surn
##pet
##xide
##ables
##ogue
incor
former
ends
tempor
##aneously
arabia
ghosts
sweden
unblock
franchise
ireland
gall
##ti
lee
visited
surge
objective
hostel
airline
initial
atmosp
scariest
arrive
acceleration
taiwan
fans
mission
sach
vod
##mo
toile
bey
##ishing
upon
##izations
earphones
singer
photograph
conversations
contributions
bor
nt
nig
##rome
##nes
##gate
enable
neural
nobel
crash
valu
cultures
stere
versus
internships
illumin
tennis
dv
lu
lou
ripp
vert
zo
##ef
##berry
poison
evolve
circles
chairman
keywords
hedge
km
sri
tough
##kh
curve
simult
breath
hardware
setup
eastern
disappear
gurgaon
magazine
youth
stal
usage
leaves
synd
digits
sleepy
landing
optional
combat
television
intellect
##rishna
tap
##va
##orate
worried
meal
blow
estab
torrents
argument
settings
darth
rahul
valuable
4th
oh
pad
##gage
##arily
##ilty
whey
##uses
##ession
donate
reflect
listening
layman
seriously
defeat
quorans
honda
alex
hope
mine
##oke
##12
ine
##stain
##role
lip
mahar
suits
adam
##dered
beings
typically
extro
graduates
breakfast
forgotten
opportunity
narcissist
athlet
impossible
bah
fer
james
qur
##point
##oub
##stru
##asp
willing
plate
##quit
relat
description
published
verification
replaced
switzer
assembly
switzerland
sulf
wan
##arin
chicago
hash
teams
mont
traits
healthcare
extent
spots
collapse
sociology
nazi
pollution
ome
sab
tie
##kan
##wr
##onom
scores
visible
schiz
classified
menstru
autism
lyric
annual
anonymously
cabin
acquire
pleas
7th
lion
rating
van
##ville
##teries
usern
realistic
paris
esteem
quantity
principle
virginity
disabled
hawai
dinner
pants
ted
strug
shah
sexually
window
steam
karnat
merch
measured
array
georgia
bleed
codes
january
auck
bon
fox
hidden
##hu
chips
##hers
##emy
improving
digest
parad
broker
psychiat
machines
stored
vacation
presentation
eventually
jailbreak
dropped
satellite
oriented
tatkal
cupcakes
karnataka
auckland
60000
rif
##mart
##orp
##stal
thous
##ros
orange
leather
nobody
civilization
quickest
superpower
##crimin
hindus
iiit
relevant
tomorrow
illuminati
thousand
36
gates
tong
##ei
##zen
reve
##una
makeup
googling
bug
camer
weekend
cheaper
entertain
telugu
bowl
homosexuality
vader
bite
bba
hip
pix
rig
sor
##rac
serial
discrimin
evolved
passing
matrix
increased
awk
petrole
inflation
roles
expression
declared
legitimate
destroyed
felt
guns
rect
##lab
##lier
##eared
alge
login
wasn
installed
guilty
keeping
lots
links
aiims
airbnb
several
diabetes
petroleum
algebra
eld
f1
hop
ot
##ni
##pass
##mate
##itative
stone
anywhere
leon
persons
noida
transmission
investig
famil
generator
construct
introduced
originate
terrorists
##ospace
21st
##rief
registration
adopt
birds
bol
gary
##hd
##anted
##uda
smarter
##monton
ending
animation
metals
param
edmonton
blogging
conditions
discount
june
##ashtra
aap
ng
tig
##lr
##mt
##oted
chap
newton
regions
swiss
kindle
murder
manipal
bicy
sik
##well
##ini
##eness
beg
fruits
scars
calend
addict
artists
url
coolest
flights
apartment
51
sac
##chool
excess
perception
safest
static
copper
deeply
crimes
arranged
associate
spiritual
aerospace
strangest
cotton
bb
fired
mun
mile
##col
##wh
##ened
##isible
trouble
stops
productive
responsib
escape
august
wipro
sansk
false
simultaneously
ay
krishna
tail
##hent
wholes
##ales
##irty
shipping
##athy
messi
fluid
##hens
slowly
nutr
mystery
800
wage
##ras
isro
asleep
thanks
sheet
guard
defense
attraction
cement
urdu
turk
trends
ionic
tummy
laugh
whis
rooms
decisions
insec
bread
collide
replacement
records
scenario
resistance
tutorials
diamond
pac
pant
tro
wast
##rants
alt
sustain
##under
authent
membr
armed
##oster
sitting
automatic
comfortable
odd
victory
extreme
bleach
beliefs
compatible
ml
sed
upper
##kg
##kary
##wear
thail
##otyp
##opl
##utation
champ
trig
povert
caring
diagram
collaps
homes
voted
mountain
kinetic
beyond
awkward
sanskrit
thailand
poverty
rav
item
##igma
##ulator
usps
spark
apprec
coca
##athan
perspective
agencies
skype
secular
insert
richard
operations
dye
roll
witness
syndrome
hump
nap
pip
##aud
##bar
inject
##ication
permit
##odynam
guar
foreigner
puppies
democrats
environmental
lectures
mosquit
interpret
bipolar
ken
sides
##hy
##how
##orter
##orced
##ener
interior
colum
pray
mining
##aires
assistance
album
cpt
sear
tumb
##zing
##itis
margin
pok
genre
equations
memor
##place
paul
protest
violence
consciousness
toefl
sibling
reveal
mtech
pair
##bur
##ecraft
perce
passive
backst
airt
foundation
bulk
wisdom
affiliate
gujarat
biting
pir
slim
wet
##oor
##gi
inch
lived
asp
complim
plug
phy
throw
imei
telling
10000
structural
50k
dimensions
screensh
cameras
ips
july
vap
##ober
##tic
stable
arbit
attemp
remote
filled
putting
talks
volc
respir
communicate
60k
october
swimming
maharashtra
cute
gta
pig
##obile
##ext
fort
thor
##rogen
##verts
reb
##imal
##actions
fever
marsh
typing
drinks
circul
25000
puzz
teenagers
motorcy
influen
possibly
robotics
astronauts
neutrality
retirement
mysql
fundamental
leonard
ud
##een
##ku
arms
matt
filip
cpu
closer
catholic
bacteria
surname
tumblr
bm
osc
##cel
##atar
##oned
##aly
shirts
##inee
bridge
accountant
##ictional
bush
prophet
communist
raising
farm
freelance
agriculture
deactivate
username
calendar
bp
##iner
##ena
stret
##oses
loving
mary
joint
lean
allah
poems
synt
invade
presidents
##isexual
drone
minds
controlled
##plant
##ograp
chrom
consumer
seattle
vinegar
hawaii
bhar
fb
moo
##ila
interst
##enses
bihar
electrom
default
196
##haar
variable
automobile
radiation
liberals
protection
scheme
molecular
scraping
admissions
creep
crop
dur
ipl
##tu
##yan
##just
##icul
##opal
proceed
quota
atl
atoms
##arts
overd
desire
strange
verify
ww1
lonel
brahmins
fabric
toilet
elder
bicycle
5000
naked
s7
##esc
shap
shipp
abusive
managers
engage
closed
matlab
volunt
acceptable
functional
recruitment
operation
convictions
cleaning
premier
bisexual
cel
dra
uc
utt
##down
##ato
beam
shave
##urt
lazy
propose
detail
equip
commonly
privacy
raised
anthem
volte
critical
angeles
suffer
cogniz
tongue
75
horn
pand
##11
##rote
##char
unhe
anyway
scorp
2011
allows
context
addicted
centers
greece
##plus
superior
horse
achie
trees
mexican
dubbed
rental
vitamin
luxury
360
bound
dang
lingu
##ril
##fs
chron
allo
intu
relate
throughout
urban
immort
communications
competition
hyper
hypot
launched
platforms
##install
fifa
arkansas
fuck
lg
ov
##flow
##xus
##aska
##rog
somewhere
##abama
console
warm
drunk
##ancing
triv
award
holmes
bottle
burning
suffering
30000
49
bala
kann
##chest
##chen
##house
mock
ens
amd
coval
jose
bob
governments
designers
assign
##iences
erad
lifetime
cube
gel
row
rome
##wide
##fall
trail
deserve
curs
genetic
hackers
smaller
introduction
activate
situations
neutral
tourism
##uki
frozen
##archy
paranormal
airtel
brief
jul
mood
nerv
ow
tack
##ining
asus
##weight
columb
pricing
personally
emerg
lightning
analog
reasonable
250
packages
mentioned
ahmed
gith
ia
md
tip
##time
##inav
##station
notifications
overl
prepared
walmart
verbal
bringing
sharma
politicians
sights
inspired
cognizant
github
fictional
om
pod
verm
wrote
##osen
alabama
newly
ears
invad
aggre
attitude
solved
vegan
biological
hoax
practices
##backs
boredom
chartered
wealthy
koh
scandinav
loneliness
balaji
covalent
fert
induction
comics
worship
asians
##inea
sore
noise
actions
reader
temper
##ugal
clearing
teenage
bands
kitchen
util
##oosing
dynamic
collapsed
erect
hunt
sel
ved
wwe
wolf
##uge
##wise
##though
enlight
although
units
sole
guinea
##anka
smartest
##ucker
stephen
opinions
appears
hike
manga
arrested
shooting
relativity
humping
cous
gang
lunch
pork
rated
tower
yo
##iency
however
sty
reform
everybody
aws
victor
wildlife
foam
atmosphere
##writing
electromagn
poo
##arh
afgh
##orable
##ellar
brought
watches
##althy
guest
mentor
##engers
martin
discontinuing
aadhaar
drama
principles
northern
louis
##odynamics
nervous
aid
bin
dys
htc
kat
mes
##uble
islands
frank
chosen
unemp
##ander
worldwide
sauce
singing
edition
bhopal
bedroom
premium
weaknesses
backstory
uttar
unemploy
jaw
pets
##icious
stark
beta
abst
##unction
20s
thinks
##echat
##izes
##oca
thrill
psu
privile
staying
epic
merge
immigrants
icse
russians
##wanathan
alpha
##bourne
dvd
rural
##hs
##requ
##erior
##ears
coach
warrant
biom
##hib
batteries
leading
verizon
forgive
claims
sadd
hamsters
transformer
broadband
freelancing
extrovert
wholesale
hypothet
350
bark
dirty
ky
kim
vish
##tte
##ris
##gu
##itha
prelim
arrow
brush
employment
forex
shared
offering
##ounced
preferred
ego
qualified
melbourne
risks
evolutionary
comparison
deriv
palestine
unhealthy
ahmedabad
hen
lum
ton
##link
inner
##enn
##lements
shad
##chron
complic
sund
plu
contest
delta
signals
evening
committed
efficiency
tattoos
unfair
worrying
neighbor
quran
berm
cough
hdf
si
zucker
##rors
##200
##eroid
##amine
##otype
fraud
usd
compre
compens
##ogen
##orders
avg
cere
gaining
mixt
treaty
reactions
smoked
impacts
curbing
strengths
tribe
bengaluru
turkish
bermuda
ros
##mail
tomat
##etric
forced
##ils
##asion
##elly
orth
deaf
##bled
contains
polic
nether
ipcc
upset
acquis
mandarin
cad
eagle
hul
rails
##rain
##writ
##alal
##estyle
chase
##rence
##ourse
attach
remot
transplant
softwares
ended
peter
cured
lucid
cooper
policies
00
95
cer
dm
fasc
##ios
seven
spider
##izer
agents
shell
parli
calculator
##ophren
trek
labor
immigrate
collection
behavi
david
newspaper
schizophren
bother
dum
ket
lac
lag
loud
mg
vr
##igarh
##ulated
soil
marine
lemon
rema
photograp
providing
eaten
##cules
cellular
reasoning
miles
demonetizing
turns
opposed
radius
##ferences
inspiring
dimension
route
vlsi
williams
configuration
southern
wanna
remotely
parliament
dict
pint
sas
tun
##ties
##vent
##alam
##eces
##ira
##ima
sufficient
##aki
##raham
bright
creation
moved
defined
hybr
nucleus
releasing
icici
hangout
sample
bottom
renewable
aluminum
emergency
abstract
ji
mh
mnc
vc
##bes
bodies
skip
differential
##fully
bugs
modif
causing
reducing
certified
steal
condom
absor
pilani
combination
regularly
punishment
zuckerberg
2x
wel
##tan
itch
##olen
##ango
earphone
underwear
aggress
affects
snake
198
headphone
torque
performing
totally
abolishing
eliminate
bruce
bones
draft
ped
rag
wechat
yrs
zomb
##cend
##tv
##tles
##inating
##isters
2019
upgrad
emo
highways
penet
secondary
larger
motivational
clearly
adults
vegetables
pilots
ssb
sorry
interstellar
ensure
bc
gig
germ
i3
##enance
##arn
stolen
##ects
severe
sciences
gran
edward
slight
massive
colorado
holoca
miscon
##hetic
sensitive
recognize
adopted
assuming
mongol
stereotyp
intellectual
equipment
netherlands
holocaust
bid
era
gross
mm
##jit
##ilder
onto
##iser
##dible
comic
##osph
##mph
manhatt
explo
outl
salman
transition
surf
socially
supports
removing
##ika
jeans
competitors
pierc
holder
nitrogen
implemented
captaincy
freelancer
families
bare
kali
nan
ri
tens
badly
refuge
hurting
quantitative
ancest
magnet
ignor
maintenance
thermal
mythology
1990
chandigarh
dedu
refrigerator
buddhism
nd
nurs
vold
##moon
shamp
##agar
overse
matches
providers
runs
##rator
division
invention
qualifications
council
##worth
sweat
thermodynamics
breasts
seeds
guarant
compliment
48
hun
ku
lick
molar
pte
santa
uae
vive
wide
##met
##bucks
shr
coal
interc
solo
##hio
animated
distr
graduating
greenlit
conversion
milky
eligibility
bags
therapy
marathi
admitted
jayalal
hdfc
manhattan
9th
bald
ft
sets
##iar
##eer
##viet
##isher
##imately
truck
deals
soviet
seal
increases
payments
opened
educated
communism
bully
destination
rotate
astrologer
sync
honeymoon
cigarette
challenge
laserjet
houses
cinema
creepiest
afghan
remainder
voldem
6th
bub
cia
jr
ner
nvid
##iel
##25
beef
##idel
##aya
friday
##istically
suz
inters
##orship
prepaid
carol
belt
throwing
supplements
investments
retain
memories
patri
lottery
replacing
knight
journalism
folder
voldemort
ohio
tiny
stem
lips
alaska
betting
soap
coin
flour
sket
singular
receiving
turbo
secretary
balls
perfectly
residential
clusters
screenshot
nvidia
hired
vom
ze
##itte
##etics
##roke
trace
sue
clubs
cocon
workers
##ours
outcome
boiling
soluble
reputation
extension
irrit
crystal
integration
influential
pitch
neurosc
confirmed
subscribers
authentic
jayalalitha
coconut
dx
kgs
mate
tact
##field
mob
nexus
phosph
incest
differentiate
medal
transit
minecraft
motors
hearing
extinct
verb
updated
consumption
kidney
escort
lifestyle
casual
##natural
b2b
hungry
insecure
membrane
memorize
vivekan
dates
slo
##ront
##pop
whit
##rew
##keys
##olving
##igan
compounds
blank
attached
cours
surve
swami
forest
120
standing
strongly
versions
negot
portal
crying
##inois
roller
feedback
dental
circumst
satisfied
comprehens
cav
kik
rul
##aism
##pan
##pad
##bow
##eters
##very
dele
semi
ardu
poetry
calc
explore
toug
verified
hypn
ethics
palm
judaism
damaged
locked
malayalam
conditioner
mp3
confirm
outlook
coursera
mouse
pf
##oices
##lan
##diac
unc
spray
syrian
smooth
##ologically
correl
drag
blocks
recruiter
israeli
texting
eleph
upvoted
wishes
unfollow
discovery
scandinavian
bars
fought
flex
##oration
anch
forum
##eland
proxy
numer
justified
apoc
nato
##ographic
2008
operate
encour
feminism
rifle
afghanistan
suzuki
arduino
33
bass
bump
ee
hers
nude
outer
rough
##iant
produc
##iana
bell
justify
assets
joined
fallen
issued
females
excell
encry
scholarships
instantly
theoretical
arbitration
leonardo
bmw
podcast
cousin
vivekananda
220
5th
crist
gf
sle
##erest
##pool
ink
##isl
##rof
##urved
##uden
adhd
poland
polym
boston
caffe
moves
interests
meaningful
distract
starbucks
2002
waist
boobs
argent
proteins
violin
cpec
weapon
narcissistic
trend
ampl
alphab
tweets
vodka
nigeria
respiration
shippuden
fle
##iates
##rid
toy
beaches
##opter
loans
emer
playstation
technique
legisl
mechanism
refuse
cooked
libert
innovation
capacitor
prostitution
pleasure
hybrid
aa
bos
rod
sf
sounds
##alid
ford
##acc
##opher
##riers
compuls
peoples
arth
signed
downloaded
terminal
trial
ipo
converted
illinois
couns
audience
titan
included
synchron
bombay
professionals
jersey
territory
omegle
physi
influenced
eradic
dup
doub
hil
lis
lte
tort
##cule
##90
##inger
shorter
spam
interaction
permission
##ups
offices
themes
transactions
obl
generated
metall
slab
geom
wax
ww3
husky
qualify
pulled
agreement
telesc
task
stamina
participate
evaluate
menstrual
pacific
##osterone
electromagnetic
plugin
acquisition
cet
gum
odi
##cm
##eing
##fol
spent
contro
flaw
repro
simulation
profiles
delo
delay
194
standards
approved
explained
vibr
maybe
holiday
vegetable
philippine
knife
sharp
benz
establish
thriller
deleting
ara
merc
pear
zen
##15
##function
theat
inj
shoe
uncon
pean
##anges
20k
##ocent
crew
adding
drain
180
lowest
studied
fluency
fault
awak
facilities
holding
displace
billionaires
integrated
declar
viruses
vehicles
denominations
concerned
tiger
ayurved
##karyotic
deloitte
65
aqu
iot
sword
tight
tast
va
##16
##idal
noticed
adolf
reserve
polish
ages
testosterone
finished
gotten
founders
introverts
suggested
160
missed
toward
label
attending
authors
aadhar
##build
phenom
temperament
shampoo
intersect
##code
##rape
##ailed
##kia
##19
##rer
##oust
##stream
##sexual
choosing
impe
earlier
recording
polls
aging
flush
monkeys
decline
hills
purple
imess
##ropy
##hesis
penny
superhe
##cribe
summary
attacked
portfol
membership
repeated
therapist
tweet
appointment
ntse
vermont
controvers
52
mint
nda
tiss
##win
compiler
abortion
##active
overnight
finally
photon
swallow
weekends
cyl
europeans
directors
multip
secretly
sensor
drops
distributed
documentaries
mcd
affairs
vegas
paradox
cursed
saddest
prelims
5k
gor
hcl
pes
rounds
##wall
conqu
whereas
nokia
bikes
ps3
antar
pcm
millions
performed
rocket
protected
lawyers
absolut
sponsor
district
peanut
gal
hook
iisc
pp
sigma
##nl
##nu
##inity
##onic
fridge
alleg
##asts
indus
entropy
april
defend
197
silent
requirement
marrying
funded
cashless
recorded
revenge
encoun
oxid
kapil
cabinet
entertainment
motorcycle
bharat
schizophrenia
neuroscience
circumstances
ale
ahead
diction
hub
mck
nin
nail
rapp
toler
##ento
##ador
spaces
mush
keys
immin
assess
blocking
periodic
terrible
symbols
relatively
proposal
pharmaceuticals
struggle
merchant
carolina
calcium
imminent
bing
session
yu
yam
##jay
##imize
oneplus
appeal
recy
helic
roy
##restrial
planes
signature
assault
loses
breaks
patel
addresses
updates
corporation
merced
molecule
rapid
rationale
normally
ordinary
zombie
portfolio
antarct
ae
b1
dand
fu
hits
rogue
wb
##oy
##cd
##comm
##rating
##rative
##vis
##atma
##heast
##inos
stains
##ifying
##osaur
pho
timeline
allies
##deal
helping
##ommod
organizations
vacc
##flu
shops
outsour
knee
william
divers
addictive
tackle
overseas
aip
cram
hors
iphones
nest
##page
##2000
##otics
##adav
asper
##osh
perm
involve
pakistanis
parag
purposes
pornstar
collie
entering
continent
concert
entrepreneurship
junk
hobby
django
aggregate
cristiano
displacement
44
au
cisco
jain
pics
pound
sip
##test
##gment
##db
##rooms
##idays
##iments
exit
##iveness
accommod
stopping
playlist
salaries
propag
deploy
owns
demonit
supernatural
compete
silly
lyft
alternate
##oxide
touching
elev
separation
publishing
snowden
mahatma
recognition
mandatory
rooting
territories
substance
spectrum
whiskey
invaded
superhero
absolutely
3ds
cum
fate
idi
kur
loop
mull
pent
srm
ts
tang
##bb
##onia
##itals
##style
liar
##using
spell
feb
booked
colomb
acts
regards
survey
##ractive
ridicul
##ceptions
preparations
selfish
potty
irr
satan
specialist
squad
limits
conducted
nickn
mamm
kannada
complicated
excellent
85
bil
cens
hiv
mv
##kins
##ml
##onna
liver
shakes
impl
bypass
conserved
nov
invalid
emulator
realistically
info
inferior
legends
designs
portray
mathematic
pieces
labrad
printed
cannab
bitsat
perceive
nursing
caffeine
eee
groc
kum
lt
##lers
##aware
toxic
##opia
orb
comed
conference
uninstall
abi
spr
prin
busy
partition
programme
attorn
medit
roomm
additional
governor
##scope
apolog
##play
heading
snapdeal
slang
holy
tablets
ghz
rotating
michigan
punjabi
frost
angularjs
towns
repeat
athletes
achieved
grocery
ary
dan
none
nint
##car
##esium
rein
##charge
exec
conce
neither
abdom
abraham
##indra
adjust
electro
supplement
##aha
macro
capable
pencil
difficulty
failing
hypoc
discip
probably
voter
patterns
monetize
ufo
wasting
intercourse
argentina
abiotic
600
bom
bone
g4
jake
sain
vas
votes
zip
##vas
##35
##atch
##keley
##rip
##ppers
##ifer
quite
uncom
allen
grown
perks
##ruff
servers
imports
metaph
jeff
institution
1800
committ
horiz
cracked
fiit
booth
deviation
adsense
cruel
##dragon
berkeley
theoretically
psychiatrist
marshm
kohli
dysfunction
pinterest
stereotypes
mercedes
04
gra
ngo
yester
##tag
##24
##otive
##illion
quiet
chose
##osure
pole
pointer
serv
##ression
boeing
googled
indo
inspect
drill
extended
trains
falls
##works
taxis
snapdragon
accessories
camping
appearing
##itarian
bench
molecules
airplanes
awareness
cognitive
scotland
fingerprint
regulations
drawn
behaviour
antarctica
labrador
yesterday
hund
kan
pest
sack
##gon
whatever
inher
dota
##omes
##adi
sha
##opol
##chi
chains
seas
##abeth
invite
polo
looked
metab
smallest
locations
##ipped
respons
##ervations
bitter
gamb
consultancy
journey
dresses
imagine
satellites
mortgage
turbine
stretch
overlay
mixture
arabs
horses
cannabis
gp
##made
shark
##imir
aband
##ipse
coe
##izabeth
prescription
boil
flirt
hello
attrib
infat
suppose
highlands
finland
elizabeth
disturb
distingu
potus
##ructure
suggestion
awake
varanas
homeless
tanks
theorem
lucky
##glass
olive
complaint
incorpor
##chester
herself
aipmt
fiitjee
varanasi
nud
##vin
concl
unw
##ipt
imperial
march
happiest
outdo
effort
seek
helped
matters
tester
insight
banker
drives
supported
snee
##anches
memes
irs
100k
triple
nights
capitalism
holidays
hypothes
resolve
combust
sandw
purchased
peaceful
closest
diplom
dinosaur
intuitive
hundred
ecl
gent
hug
##ias
##kok
##bies
##born
##inn
dos
##aco
weld
shoulder
und
amcat
##endo
hem
prest
clar
residency
wanting
cheque
cafe
simps
humor
remedy
transist
obv
listed
behave
##erators
defence
origins
marriages
recommendation
identical
devil
cancelled
broadcast
clinical
excessive
victoria
germans
apocal
alphabet
imessage
muller
marshmallow
dio
fare
i7
mol
mca
pard
rasp
##hra
##uti
##arest
sock
lover
plural
consent
justin
laz
ourselves
retina
austria
connecting
romance
creativity
negatively
magnesium
boxer
craig
violent
passionate
vlad
festival
diagnosed
assassinated
lumia
oblig
mcdonald
ridiculous
700
bills
ebooks
hated
jelly
lump
qa
rust
upt
vary
##ui
##ystem
##sty
stain
##ura
##inem
alarm
semin
acids
manchester
saas
bananas
handed
handwriting
requires
minded
assume
nearly
irish
explos
gateway
facult
missile
integral
phrases
lenses
guru
aspiring
wallets
ocd
continuous
responsibilities
dandruff
obvious
37
bf
cms
ether
foss
gop
##lik
##tes
##ran
##ho
##hal
ants
thom
aside
unity
##inking
joker
allerg
expired
exports
mature
deck
bangkok
statements
cleared
goldman
announce
cups
libraries
indicate
nazis
patients
occupied
gsoc
temporary
sachin
sabha
sacrif
overdose
derivative
compensation
ceremon
counselling
duplic
a2
hates
lgb
vend
wives
##raph
##nel
##kat
##fit
thai
thunder
somehow
##rive
trash
neh
useless
clone
##eller
teens
blon
blade
calm
##ypse
productivity
cellphone
reduced
psychologist
lincol
denmark
4gb
##going
hydroxide
bootst
pharmacy
##heads
sociopaths
dentist
refriger
dependent
thighs
zodiac
pixel
nutrition
siblings
aggressive
encounter
##fluid
lincoln
3000
dal
fart
gard
jup
rc
rib
rising
ya
##22
##itely
onion
stare
chats
enemy
##acks
coke
arrog
branches
badass
elite
virat
practicing
110
brains
committing
glue
ignored
purchasing
antibi
odds
launching
advisable
bsnl
stamps
hashtag
filipino
bpo
piercing
dictionary
raspberry
blonde
aam
bake
lith
nits
wrist
##nia
##mg
##edical
intended
coord
##echarge
blame
discharge
warri
twin
downv
genes
popularity
correctly
divide
achievements
predictions
liquor
hdmi
##iables
albums
disappeared
instruments
conservatives
jumping
priority
infection
bleeding
champions
compulsory
apocalypse
biz
htt
kern
tib
##gian
##mus
acoust
banana
invisible
boiled
universes
strict
snakes
autoc
accepting
measures
merit
revol
fairy
brothers
ncert
upvote
cruz
manufacturers
thousands
ovulation
misconceptions
##worthy
accommodation
dioxide
34
bds
dick
t20
##jan
##rection
##isons
##roph
##enders
lob
lease
grid
prince
passenger
attain
profits
planned
apes
applicable
loser
cyan
horosc
preferably
limitations
fiber
medication
salesforce
semen
honors
robots
dominant
oxford
hallow
##proof
prostitute
agricultural
temporarily
volunteer
mercury
colombia
nintendo
discipline
diod
dtu
fried
fulf
tube
##zes
##2o
##arms
##resp
spac
engg
##abilities
relax
##lets
sheets
1080
owned
##azz
photons
speaks
lists
controller
parenting
microm
viral
shortest
##rater
sectors
bulb
bulld
arrange
impression
enforce
villain
instrumentation
jupiter
foo
gita
ln
np
noun
races
ske
##iative
##kind
##oming
##ette
thread
##cho
exception
unix
climb
disorders
warcraft
eminem
50000
emper
strings
biotic
viewing
singers
submar
memorable
confess
dealing
logistics
balanced
protocol
farming
males
cricketer
llc
challeng
dumbest
marathon
ethnicity
dumps
sulfur
discrimination
volcan
enlighten
hilary
ltd
hs
nails
##entional
##otism
##olo
##uman
loyal
adject
flies
infrast
detailed
##scious
controlling
templ
caps
superfluid
pornography
leads
blogger
satur
2007
20000
gamma
eyesight
quitting
rooted
dropbox
bitcoins
authority
interacting
audit
housing
cocaine
libertarian
oxidation
mckin
infatuation
bulldog
fm
lap
wil
xl
##hand
##99
##orph
tob
forb
##ishes
module
##uram
ordered
##agues
cham
ate
clat
intermed
cardi
##ologists
freezing
decides
interviewer
eats
ell
extrater
graduated
optical
momentum
motivates
variables
appearance
ratan
stupidest
mahindra
pgd
leadership
belongs
hobbies
palestin
scalp
chihu
vertical
immortal
trailer
privilege
refugees
ignorant
helicopter
asperger
horizont
pardon
halloween
chihuah
2d
oz
rit
sided
wol
yr
##nost
##fone
##atter
stab
##igen
conve
pepper
gray
granted
reson
desper
experiments
builder
indore
depth
drum
bats
affecting
##mature
austin
earthquakes
qualification
destiny
potentially
slower
rotation
rejection
ladies
cruise
advertisement
withdrawal
##uguese
transportation
sarc
column
puzzles
alloc
trivia
conquer
irrational
faculty
nehru
8gb
cort
db
faces
ig
ls
mt
soph
tone
vim
waking
##cam
##mu
##xies
##rey
ingre
stations
stroke
hai
##olism
##see
##umes
maine
unatt
ammon
manner
##asthan
##ruary
skate
##ysics
pays
surpr
defic
institutions
##ova
tradition
portuguese
destinations
medicines
certificates
immigrant
duke
raped
puls
vietnamese
garlic
dramas
scott
luke
biomedical
##bledore
dumbledore
bubble
phoen
february
committee
seasons
eclipse
acoustic
ingredi
2gb
4s
borrow
fol
gonna
hiding
poop
sized
₹2000
##ynt
storm
myster
##ulph
##iper
##uding
##asty
learnt
persian
disaster
carb
trainee
backlink
solver
imo
formation
messaging
hottest
subway
gainer
19th
locate
brake
automotive
##job
knock
float
fedex
handsome
rajasthan
conflicts
magazines
promotion
tasks
kumar
vladimir
infrastructure
98
cache
rays
tub
welf
##cus
##ki
##fare
##atron
##anol
##isites
##irting
shake
##uther
yours
unh
spicy
spiders
lok
relieve
sao
contemp
evap
carn
empathy
charl
##ieties
surr
socialism
hairs
##mini
meter
morality
punch
talked
norwe
activation
hurts
exciting
switched
atheism
ecos
accuracy
truths
victims
significantly
lucknow
lecture
literally
fetish
bhagat
gallery
engagement
chronic
columbia
warranty
orthod
geometry
ethernet
77
ctc
fails
gy
hij
sizes
vul
ware
yadav
##uber
##parent
##mates
canvas
stones
stamp
notable
betray
co2
##aba
##uprof
bris
descript
polite
##ordan
warren
herbal
integer
gene
genoc
regression
technological
assange
debates
estimate
alcoholic
ibuprof
innocent
procedures
superm
##world
focused
subscription
comfortably
conductor
fingers
##onyms
severity
berlin
cuba
kapoor
julian
thomas
mckinsey
2g
breat
dow
loo
merm
panc
qatar
vamp
##yo
##oul
isol
beats
##ayana
lighter
##ieval
worker
cola
medieval
##connect
highlight
insult
insane
downloads
elastic
mainstream
organisms
portugal
##spot
fiance
ignoring
detected
hanging
referred
simplify
physicist
incorrect
circulation
louisiana
diversity
combustion
kernel
unattractive
3s
3x
4k
ace
ero
eight
g3
ki
paste
tense
viv
##sin
##fc
##enium
##str
convey
scoo
scary
coinc
brad
cauc
badm
##days
delicious
menu
swoll
worthy
headache
issuing
horrible
illust
illusion
survival
uploaded
possessions
pimple
remaining
roots
dedic
nagpur
flavor
tuition
appreciate
chromos
laziness
bootstrap
micromax
enlightenment
phoenix
ibuprofen
hating
mn
morm
tails
ye
##gent
##hea
##icip
someones
##atem
plates
maruti
leap
recre
bron
calor
interns
skipping
shel
decade
##apped
temples
gained
expecting
household
estim
recommendations
excuse
glob
deny
labs
tourists
beds
telecom
castle
implementing
implementation
victim
mask
paintings
filling
migrate
chloride
sachs
rigged
atlanta
penetration
deduct
attorney
nudity
lgbt
genocide
swollen
kings
lun
ore
##liest
##uar
##onts
##oran
anat
##arians
andhra
##acles
##elp
##amed
wheels
##ulum
peak
adder
expenses
##emark
chef
regain
employed
advise
passwords
##bridge
trainer
steering
asteroid
portals
errors
financially
kissing
strategic
randomly
##obia
mangalore
village
neutrons
progressive
venus
discussion
##ochond
bolt
mileage
attempts
horny
erectile
selenium
ppf
arrogant
welfare
66
cnn
heter
nri
nerve
sail
sulph
vat
##case
##ko
##55
##for
##erves
##organ
##iti
##ometer
stages
##ayer
##oline
shia
quarter
exha
chord
conj
abilities
sphere
prerequ
peru
pocket
braces
agile
agnost
heroes
curric
secured
bases
legend
camps
guatem
buildings
letting
politically
installing
slot
angels
##aneous
switching
respectively
disappoint
##chers
ccna
rhy
gtx
napole
photographer
hypothesis
intermediate
ecosystem
exhaust
43
jama
lane
nm
por
pence
yield
##rina
##inator
##anj
dose
toky
##ilton
##ashed
##eling
weren
##rim
##ulkar
wayne
hex
marx
grass
instance
bless
serving
backend
skilled
operator
marketer
charles
classification
##matic
determines
##ucky
connections
stats
checking
trademark
protons
observe
drawbacks
##wali
voters
inspiration
tendulkar
composition
##hyd
vapor
oscar
scorpio
joseph
sacked
norwegian
dak
io
j7
jur
jordan
ktm
sx
trop
vent
##iosis
##cling
##eed
##bc
theta
anten
##eton
##ldon
##eches
##agan
##ership
plain
feas
reservations
recove
preschool
watt
overw
backed
twent
rose
employers
meanings
youtuber
mechatron
guilt
autistic
asset
equally
mainland
sla
viber
mbps
rocks
contribution
maintaining
diseases
defeated
strangers
siri
navig
montreal
hypothetical
correlation
encourage
breathe
guatemala
tokyo
bcom
han
jazz
lust
tension
vinc
xat
##iber
##aug
##pat
##hma
dol
anth
##omer
ons
beagle
std
shaving
##chlor
comput
mankind
intention
covered
leak
##ivia
##gemini
##berty
recon
passengers
replic
guess
distinct
apk
armen
oppose
treatments
photosynt
diwali
puberty
deepest
facility
cookies
140
acidic
pickup
princeton
melting
hamilton
carbonate
##slist
rainbow
myths
aeron
articleship
bottles
mattress
unemployment
coefficient
prestig
surround
badminton
72
ety
jury
jedi
sid
tires
yale
##vable
##hai
##ayan
haz
mold
usual
##angana
##aker
learner
cler
mugh
##rukh
offs
filing
pubic
communities
logged
publicly
soup
acceptance
multipl
diarr
galaxies
boxing
impressive
kitkat
iranian
hospitals
nicest
shahrukh
sustainable
witnessed
neighborhood
emoji
eradicate
intersections
recovered
etym
1z
cord
lbs
nus
uan
##iations
##tb
##uch
##atore
##atics
##orary
##ashes
##rove
stim
quiz
trac
unst
unbi
peer
##ooker
appeared
workplace
##ryl
##velength
##ava
resear
incomp
regional
##appy
elit
apol
capgemini
organs
microscope
wavelength
branded
absence
titles
miami
loading
vectors
tyres
converter
rarely
approximately
alexander
udemy
ndtv
podcasts
phenomen
craigslist
antibiotics
##respond
1z0
unbiased
bca
fib
hoc
kam
s6
tony
wings
##gium
theater
inapp
tol
##omers
##stone
##rocess
##elled
##uma
meals
neur
spelling
adap
clay
clut
partial
realty
correspond
regrow
rss
hotspot
snooker
125
trained
michel
panic
nightm
##cla
papua
tracks
horizon
firewall
astroph
senate
occurs
llb
documentary
bachel
buddha
airbus
deactivated
partnership
owning
dragons
paragraph
gentle
slavery
computational
diarrhea
ao
bun
dasht
ebook
fisher
gases
herm
pse
tet
veter
##dd
##100
inex
anne
haunt
liking
##child
chile
intim
##ivers
offensive
overweight
emi
emit
speeches
infant
reports
transmit
basically
bankrupt
##azi
proved
healthiest
##otherap
parking
potass
irre
shortcut
directory
saturn
screw
traditions
promises
firef
absent
procedural
circular
accurately
roads
astronomy
browsing
continuously
ejaculation
fellows
mosquito
dangal
shadow
synchronous
telescope
cylinder
metabolism
dinosaurs
emperor
vinci
photosynthesis
fonts
horm
hons
hier
lpa
mild
tay
zinc
##rup
##87
##bird
whale
therape
##ingly
tome
##ico
##acco
##rosh
rear
neil
aloe
albert
uss
segment
##orted
sci
heating
##ials
accel
disg
flower
insects
##words
homemade
healthier
cellul
spacex
pyram
stein
currencies
refused
251
cops
vera
hitting
awa
##ateral
disadvantage
ruin
capture
workouts
strengt
##brew
fishing
retriever
elementary
tags
jammu
flavors
accomplishments
newspapers
ejaculate
columns
katrina
slightly
declaration
controversial
distinguish
tibet
extraterrestrial
ingredients
aeronaut
etymology
potassium
therapeut
cakes
fisc
gather
mma
pending
torn
wiz
xi
##lon
##fish
##jud
##300
##inent
##oura
##ads
maker
enl
manila
20th
coimb
arc
waterm
flirting
sexy
##loyd
bias
earned
riding
taxi
slave
expectations
texted
urjit
impacted
multiver
asthma
facetime
celebrated
bhub
magnitude
##fortable
detective
carrying
frameworks
dispute
experts
advertisements
spoiler
bathroom
shaped
welcome
pearl
yamaha
uncomfortable
fossil
sacrifice
duplicate
volcanoes
globally
dakota
coimbatore
38
cows
craft
ds
fool
gut
golf
##tor
##rical
##shi
##vania
##bered
inverse
##oured
isb
##ito
##ilog
ont
beans
##amy
##amic
shield
##dib
worn
acknow
leo
otherwise
disconnect
conservation
marking
invasion
reputed
freeze
veins
strain
technically
follower
adventure
eyel
1960
textbooks
geograph
chemicals
divisible
liberty
ruled
combine
philosophical
mike
substitutes
duties
principe
dialog
monetary
cartoon
nsit
physicists
enabled
inev
zenfone
assessment
roommate
outdoor
diode
caucas
dedicated
apollo
disgust
echo
jag
rog
roth
wrest
##ng
##uay
inbox
toys
##ede
##asma
reward
shif
moons
##ieber
accused
persu
contrad
chetan
carpet
##ocate
apis
reactive
filed
prevented
fathers
dylan
hydrochlor
baseball
inspiron
dutch
heroin
indonesian
aspirant
converting
churchill
mosquitoes
maryland
dictator
itchy
ancestry
sketch
##glasses
deficit
orthodox
##anjali
phenomenon
kent
lan
moles
rna
tape
tune
viz
wand
##van
##dam
##pg
andrew
##oto
##econom
reun
##adel
shaw
trillion
nearest
##herical
sees
acet
##sian
##ermat
visas
funeral
##ductor
redeem
classroom
ideology
processes
harmon
youtub
morally
reasonably
euro
magento
barb
completion
modeling
organisation
recruiters
hostels
crypt
probable
consultants
rubber
ultra
baja
fighters
resigned
excluding
sikh
linguistics
vishwanathan
tomato
rapidly
transistor
seminar
garden
tobacco
palestinian
contemporary
8th
bir
dip
kota
nse
raz
xana
##cot
##afe
##mic
##hire
##best
##base
inert
##orse
##oler
##olis
shri
shades
moist
alert
spherical
intj
pref
joe
joy
afterlife
bose
olds
weights
shear
repet
##consin
buck
miner
centres
##tered
extend
metric
rush
lately
slaves
massach
barcel
killer
trader
fears
anxious
poorly
grams
trustworthy
symbolize
fourth
coastal
manufactured
hirosh
rubik
entirely
queens
wisconsin
##ylvania
possession
oceans
roof
nikola
tribes
nike
buffet
manufacturer
cosmic
chapter
tactics
bumps
flaws
ritual
napoleon
youtubers
xanax
barcelona
hiroshima
bieber
dancing
kmc
lact
nl
nine
rt
sop
viable
##wid
##etts
##aga
##feed
##istical
socket
spl
managed
managing
##akers
hebrew
intoler
coverage
marines
exposure
colored
presently
viswanathan
monopol
courts
imdb
legacy
moroc
patanjali
cycl
recruiting
shots
checks
awards
##nedy
labour
40k
chatting
##boarding
jacket
coaster
recipient
colours
vocal
flowers
claimed
recognized
fantastic
minority
criticism
coupon
##while
appreciated
kennedy
##burg
toughest
backlinks
feasible
bachelors
bhubanes
42
40000
87
cider
ddr
gulf
nas
rama
sv
tamp
vell
##mers
##fly
##anth
##eros
isps
##asaki
##acies
##adryl
##chain
##ulating
meiosis
compass
##assy
##rah
##rams
##pton
taj
perpet
monitors
sheldon
crm
crus
reperc
societies
remem
regime
aviation
charity
penns
modem
patna
organize
lara
midnight
ern
conventional
viking
##erob
mitochond
boxes
uploading
benadryl
melt
##ussions
paralysis
greeks
shuttle
crore
retailers
cubic
spoil
believing
infected
bonus
bbc
volcano
ragh
shrink
singularity
rapper
bombs
socks
erotic
adderall
jamaica
mechatronics
inappropriate
pseud
dialogues
cz
cf
dust
fusion
lcd
recharge
vanc
wound
##vo
iso
##alent
##stood
##asia
producing
##imeter
aspect
deh
enem
plag
##asters
prejud
##query
##lesh
relatives
boat
carrie
decorate
avatar
designjet
cataly
swing
mete
prospect
darker
1980
urge
customs
replies
cracking
sonoran
heartbreak
certifications
closet
colonies
feminist
taboo
penalties
diameter
circumc
giant
established
inequ
injection
interpretation
lacs
tensor
cramps
elevator
nickname
unwanted
upto
1080p
hydrochloric
pennsylvania
d3
dic
hou
jill
lung
nh
vin
##oons
##nadu
##pes
##pot
##hew
##inction
##oug
fract
chop
##akash
##ellation
interv
##oda
watson
overth
improvements
muscular
decomp
salad
cambridge
popc
tvs
distilled
sett
ceiling
panels
pcs
receipt
prompt
nationalism
divorced
excited
tamilnadu
contributing
madras
journalist
hawking
lifting
kaif
imagination
advisors
restricted
mysore
ripples
blowjob
ferr
ngos
thorough
dangers
hulk
##writer
impeached
repeatedly
gorilla
horizontal
antenna
anthrop
taylor
therapeutics
vellore
47
duration
ott
rud
##lace
##gary
##za
##ouver
isot
##stars
bees
##otine
ships
orland
##rio
##riet
choices
##ulative
##osity
alle
suited
plasma
clim
expat
indiana
smith
existential
signing
subcon
seller
headaches
sends
checked
25k
prominent
hurric
walls
circuits
iceland
requests
consuming
odor
constitutional
sushi
annoy
ssd
codec
imaginary
satisfy
southeast
frustrated
otg
sunday
whiten
legislation
mammals
shakespe
abdominal
attributes
adapter
multiverse
vancouver
cds
jar
jquery
luther
void
zoo
##lah
##ih
##chem
##wag
##qwl
##heim
##alt
##igo
enroll
hey
##isha
alliance
overt
consecut
carried
helium
laid
invested
driven
economical
advent
homework
postal
methamp
morgan
officially
christopher
##cribed
cutting
diary
lymph
frequent
databases
madrid
##afone
dropping
conditioning
nomination
swedish
abolished
proposition
subscribe
cockro
fortune
puzzle
4919
fertil
henry
mobiles
encrypt
orbital
princess
sandwich
autocad
pulsar
clerk
michelle
methamphet
74
84
bac
floyd
gaz
lanka
vet
wont
##iy
##ere
##west
##hit
##fram
##burn
thir
frag
exe
plz
residence
instruct
relief
counted
##phia
flux
embr
##lete
##ocl
integers
hadn
delaware
valuation
musician
dealer
195
australians
##ymes
sunni
fights
50ae
2004
koreans
specialization
missiles
transferred
variance
radical
condens
announced
motherboard
##space
miser
consumed
escorts
comparing
oxide
ambani
nominee
admire
optimization
composite
orders
spinning
vodafone
ratings
troops
ceramic
kuwa
toyota
gambling
gpu
simpson
fulfill
adjectives
pgdm
calorie
clutch
strengthen
repercussions
mitochondria
popcorn
53
ct
dd
d5
dated
gee
glow
hut
hog
hips
nur
qr
rip
tx
tir
tons
tries
##no
##vet
##bul
##ili
##asms
##ela
references
shiv
##chan
##mentation
spare
pla
scoring
adwords
preference
coder
grap
curious
##ochem
blackheads
empires
addition
minimal
proport
deterg
surprise
##boy
equality
bodybuild
clever
selfie
hyund
modules
starter
trim
allowing
cutest
sunny
immune
oklah
erase
130
moderation
husbands
ramayana
academics
datas
arabian
powered
prediction
semicon
reporting
displaystyle
colonized
complexity
indicator
scandal
fetch
consistently
ripple
plugged
mooc
ruling
elephant
wbjee
meditate
horoscope
anatomy
fellowship
##adelphia
plagiar
shakespeare
hyundai
oklahoma
1k
4x
89
azer
df
lal
lamp
pus
pist
pier
sde
zones
##bane
##herent
##esh
thiel
##isp
##olics
##uts
wheat
worm
enters
unlike
unpro
##logs
##allas
covers
##ivals
finds
##rux
descend
flop
flood
monday
shed
winston
fasting
equil
confront
##ibe
philadelphia
organized
originally
creatures
convention
collab
karna
wallpap
voicemail
bots
initiate
vaginal
tutor
nicotine
jealousy
incidents
resignation
healing
vegans
simplest
bhagav
breathing
ngc
responsibility
##charger
polymer
welding
brisbane
tracer
czech
orlando
subconscious
a3
ase
dallas
mant
nood
pond
pug
rr
rv
rack
tb
wires
##crux
##father
ank
##alism
thumb
shit
prol
atroc
scopes
##aved
grant
##odb
blur
recall
overs
commod
realized
belgium
downs
salmon
buzz
bikin
insist
drown
##hibit
finite
runner
entity
entered
civilians
patience
refres
divid
##opathy
rukh
gasoline
achievement
kissed
soldier
creamy
daddy
feminists
ambass
toothp
submitted
neighbour
thickness
dialogue
approximate
ufc
tomatoes
enforcement
resonance
ontario
bhubaneswar
meteor
aids
bans
bach
git
gly
hoo
jets
kl
kansas
pab
rl
ti
##lord
##uous
##vation
##fire
whites
isp
##icc
##ationally
##cha
##imp
indie
quot
##resa
abd
##ptions
underwater
visc
warfare
crown
humid
bloom
propriet
travels
obst
forehead
##ancies
##centric
potat
textbook
##standing
pasta
horcrux
automated
discrete
boots
telecomm
consumers
hdd
spirits
colonial
width
optimize
substances
compression
trigger
pipe
moocs
utilize
unemployed
hypothetically
##arnation
portrayed
explosion
challenging
prerequisites
agnostic
dolph
consecutive
1tb
fad
kard
nad
pie
um
vid
yelp
##cers
##hun
##21
##ju
##icting
##stan
threes
unlik
complement
seals
##rens
sched
##aken
yearly
resorts
recur
sym
disag
cheats
aged
bold
flute
sexiest
passes
backp
##ethical
dece
charism
##asha
drones
battles
filters
rides
powerpoint
blockchain
idol
founded
deaths
walt
##paid
stands
prototype
exercising
diy
malware
bhim
measuring
proofs
motorola
bandwid
alike
counsel
untold
cables
beatles
rajan
unlocked
trending
##emption
banglore
unsubs
catholics
akh
configure
bolivia
sikhs
altitude
pigs
durable
comprehension
producers
awakens
incorporate
http
forbidden
rhyme
hockey
geographical
inevitable
detergent
bandwidth
gem
hc
hilar
oily
s3
ward
##yroid
##32
##aming
itiner
##ifiers
indirect
troub
pls
##akum
adams
instances
##atha
brig
curse
twins
everywhere
decimal
provision
guid
staring
refuses
avoided
2001
activated
firearms
licenses
streams
trusted
specifications
melania
honor
acquired
wildest
bengali
talented
##iciency
bearing
surgeon
photographs
stalin
begging
filipinos
omn
styles
bullying
lisa
theatre
propaganda
cellulite
enlarge
remembered
##erobic
bites
dong
jf
kills
nodes
pension
rf
##rine
##hil
##has
##bing
##rely
toss
##oman
##amous
myers
reinc
wheeler
ifs
query
mao
unite
unethical
composed
spite
apples
clou
coil
mucus
##achi
carbo
curved
##erto
ski
roast
remind
##kesh
prophe
gradient
economically
centrif
##aho
sniper
##peria
publ
mainly
weekly
nearby
boyfriends
terrier
statistical
specially
analyze
vijay
##ritis
survived
returned
eccentric
chris
combined
judicial
subsid
liquids
reported
irony
matching
pharmac
cruc
manipulate
niche
monitoring
mp4
scanner
dynamics
suspension
headset
wonderful
searched
mindset
hunting
hulu
explode
surveys
producer
unhappy
warehouse
curriculum
inexp
##economics
kuwait
pablo
potatoes
cpa
ease
erupt
mall
mute
nir
pend
pvt
ross
sg
sind
##tect
##uan
##86
theft
##anmar
inaug
##orous
doc
dock
##eds
##isy
sting
##amb
myanmar
lied
##opic
alk
unde
usc
##herry
intp
intense
apparent
lev
instinct
sa1
##phy
incub
poles
warning
monkey
twist
crude
decor
marketplace
avengers
testament
earns
sublim
##bians
girlfriends
meters
prosper
eukaryotic
notebook
superst
steak
constip
armstr
uran
reactor
prevalent
2005
promise
baba
silk
holds
##oku
karan
mitosis
argue
measurement
rolls
closing
synonym
previously
darwin
satisfact
neighb
nagasaki
occupy
lamb
nutritional
granville
phosphate
inherit
vulner
aeronautical
fiscal
raghuram
enemies
houston
itinerary
armstrong
bour
fills
gn
gri
hollow
pra
pne
render
tile
##cp
##twe
##schild
##pi
##17
##hered
doors
##alo
##itan
##eta
##etically
##etta
##ilia
##isor
##idences
revers
##usions
neo
##osition
sovere
##unal
amity
##udes
armp
bookmark
brakes
cheek
monarchy
herit
realise
credible
highway
insan
socialist
fatig
lets
prospective
##versity
breakdown
orgasms
sender
microphone
sunglasses
turks
fluct
suicidal
competitions
portable
approaches
embassy
ranked
##oked
telephone
rottwe
hammer
enforced
contractor
narcissists
##obic
resistant
discontinue
egyptian
kilos
rabies
ownership
photographic
vomiting
distracted
ninja
outsourcing
sneeze
announcement
ceremony
bajaj
minerals
methamphetamine
bhagavad
noodles
pneum
57
ger
gro
oak
pv
ryan
sare
wo
##gc
##fi
##inters
##itch
bean
straw
lib
##keep
prokaryotic
##ppo
fraction
##ateur
unrequ
pep
scream
scams
workload
marc
donations
##odor
prisons
genetics
strand
minimize
pope
artwork
restart
darkness
barriers
2006
copied
creates
erp
gluc
twitching
failures
corporations
boarding
domains
essays
captured
stressed
historically
requested
almond
occurred
cabs
distribut
miui
witch
neurolog
inspire
appointed
creepy
literary
clinic
parameters
columbus
mongolia
elephants
slept
fingerprints
a2a
hashtags
charlie
elitmus
unsubscribe
hilarious
unrequited
62
gems
jane
kir
lug
mice
vm
xp
xperia
##loo
##aq
##mle
##hub
##bage
##reen
##inform
##esign
ster
steroid
##oli
referen
shim
##sea
##urus
notified
arj
teleg
##ema
firing
brick
involving
sexist
backward
sims
corp
stray
purifier
biochem
drift
forecast
worthwhile
politely
wells
anticip
oppon
volts
ballo
geforce
landlord
puerto
approval
moderate
condoms
annum
holders
obser
touristic
rolling
covering
initially
utah
decreasing
sequel
administrator
assumptions
coupons
seduce
pirated
vedic
guaranteed
arthur
doubt
apologize
allergies
onsite
nightmares
rituals
thoroughly
disagree
7000
dun
mcc
ry
vow
##note
##master
topper
##icut
##sts
stub
##adium
##rium
##ifies
cha
##ista
##arton
abrupt
##inding
##enda
acry
manually
manners
adul
symp
boiler
flora
skull
minnes
ridge
##mann
psus
diego
founding
iitians
practically
immed
deserts
portland
amounts
bhut
racing
eyebr
##shore
perfume
africans
probation
ignou
pronounced
buried
attended
regarded
actively
respected
honours
collectively
neutron
referral
initiative
journals
mountains
procrastinating
criminals
principal
khal
dissolve
gujarati
mongodb
poisonous
sulfate
lionel
boundary
guarantee
hunter
vomit
hypnosis
numerical
metallur
aleppo
vaccine
hypocr
yawn
preschools
prestigious
haunted
##otherapy
firefox
ussr
rothschild
vikings
kardash
heritage
rottweiler
minnesota
dair
dhan
dnc
eco
kaz
pmp
rpm
ranges
samp
zom
##sha
##giving
##uity
##bie
wharton
##estation
beasts
##amas
reached
##die
##uries
frames
trich
asc
align
unn
comprom
abc
imply
##ileaks
brill
flame
trave
##ductive
cares
regrets
follows
endange
processors
poster
generations
generating
##forms
##boards
##ancer
1500
equals
couch
capita
speeds
pornstars
trips
shorts
2009
cancellation
opera
penises
bulgar
cooling
fairly
castes
wikileaks
obsession
containing
opposing
visualization
tables
##listed
obtained
cowork
believed
adaptations
kalam
investigation
diamonds
franklin
encryption
slee
desperate
watermel
kentucky
laravel
toothpaste
telegram
dairy
endangered
bic
duck
drav
fms
girth
hicc
iocl
kab
lions
noug
puss
rows
sama
trol
##gg
##je
##heet
whist
##inely
##eration
##eries
thc
##acity
##roe
stall
##oling
##lyn
##illance
maid
meme
envelop
##outs
uno
unic
uncle
##mented
scala
##ountered
appropri
##abs
recurs
recession
pointers
worlds
brow
##fty
programing
nova
undergo
flick
caltech
belkin
laos
##issance
transcript
insom
detox
waterloo
himal
swip
winds
painted
microp
reduction
idaho
stayed
diffusion
latex
variety
strip
passports
denied
revision
definitely
scenari
encountered
hangover
deposits
rico
comparable
behavioral
everest
thicker
chapters
stealing
surveillance
execution
inspector
abandoned
aamir
warrior
hierarchy
prejudice
inequality
cockroaches
inauguration
immediate
nougat
scenarios
39
94
bse
eut
fond
ie
jab
kb
nid
nipp
oyo
s5
ticks
##city
##rion
##noon
##zed
##dry
##45
##alf
##ested
##idated
shame
##uten
meets
unreal
usmle
pew
amateur
pluto
afternoon
newborn
accents
symm
served
contag
baner
offended
incoming
thrown
genetically
signify
swear
distant
128
snape
movements
immun
landsc
licens
footballer
##ademy
mexicans
robin
dyn
concentric
concentrated
associates
categories
colony
parks
azhar
feminine
egyptians
jerk
hobbit
orientation
migration
cornell
restrictions
hatred
nickel
rabbit
rabbits
consistent
crowdf
oscill
upgrading
slogan
tougher
cyanide
nmims
mughal
bikini
centrifugal
constipation
satisfaction
glucose
dravid
01
96
93
aur
dash
dwar
k3
mph
ou
ppc
tds
uv
xml
##iary
##person
##bles
##eno
dots
toast
forums
##acare
##eli
rey
##utter
##utory
prohib
##agic
chal
##aining
intend
expir
resc
safer
actuar
friendz
reads
roku
bios
##arket
endorse
costume
culturally
kindly
musicians
brokers
modelling
legalized
statutory
##inson
pcb
skinned
objectives
malt
youngest
featured
diets
rolex
licence
subjective
observed
tenure
ignores
burned
casting
destroying
laden
deposited
mahal
murdered
lifes
flags
domino
nuts
yogurt
genuinely
foil
spoke
sponsorship
festivals
cluster
revealing
farmers
scorpion
immortality
comprehensive
confirmation
emerging
tolerance
auction
mvc
mathematicians
disturbing
farewell
azerbai
atrocities
telecommun
fatigue
luggage
acrylic
microprocess
banerjee
actuarial
58
88
bash
craw
dense
fc
fals
jall
mri
pis
pav
tl
ties
xam
##lal
##aine
##aissance
##nar
##mah
##atom
ana
##icular
bee
##idas
##eco
prost
trap
##osing
unfriend
##aprio
amster
schen
coaches
##ella
##duled
sai
cheer
monster
trait
blacks
maturity
decades
indicted
traveller
listing
gui
caller
##teen
taxation
calculating
starving
microcont
meetup
radi
sections
annivers
soundtr
knowledgeable
structured
deadpool
maximize
##liance
launder
magnets
ghaz
##ilesh
misunder
separated
sensors
detection
duct
html5
skyrim
pulling
duality
container
interactive
forens
promoting
promoted
renaissance
crowd
compressor
borough
montana
elderly
lobster
submarine
template
cardio
chihuahua
vampire
illustrator
tropical
perpetual
dicaprio
##frame
akhilesh
briggs
jfk
contagious
amsterdam
schengen
anniversary
2k
cage
duter
fps
ping
pars
rope
s4
tale
ucla
vibe
##sa
##aids
##hole
##fia
##xpress
##bro
##jas
ingest
inorgan
istan
todd
##arma
canton
##amacare
##ithik
##urities
proton
##agra
unre
clip
##iah
##ivate
arous
grace
expire
outgoing
overp
marker
##ressed
invol
agenda
##ertain
internationally
backwards
topology
repeal
decay
##coder
drdo
finn
obamacare
civilizations
canadians
freely
antim
baloch
mixing
directed
##ographics
difficulties
jewel
globalization
combinations
layers
philosopher
hiber
scheduled
representative
hrithik
unfortun
iranians
resistor
daener
professionally
etiqu
corrupted
nihil
corner
scalar
shivaji
aluminium
zoom
reflection
struggling
digestion
thanksgiving
vaping
poorest
dictators
absorb
injury
uncond
demonitization
spacetime
sulfuric
multiplayer
plagiarism
ambassador
traveled
watermelon
pussy
browse
inorganic
istanbul
daenerys
5v
720
asexual
dl
eos
hes
hana
josh
kany
tender
##np
##gation
##gging
##uated
##kim
##wash
##51
##xer
##jis
##essee
##onin
anna
stability
stares
##iram
ree
doesnt
##urning
orchest
##riage
meer
conferences
unint
##iexpress
soy
expense
priced
disability
watts
nost
invoice
lax
medi
seeking
remains
suppl
corps
ministers
biography
hardly
distro
tempered
fallout
potato
psychic
sellers
slack
magical
armor
##ratic
treating
westworld
geology
experiencing
hypert
deadly
discipl
positively
osama
amongst
expressions
demanding
astrologers
pulse
radioactive
residents
earnings
masood
ionization
cucum
soulmate
discontinued
chandr
chandra
finishing
believers
buffer
buffalo
turbul
alexa
rifles
kenya
aspire
allahabad
irritating
negotiate
anchoring
amplifier
continental
responses
estimated
overwhel
gentleman
razor
bodybuilding
dfrac
abdul
backpack
dongle
brilliant
euthan
duterte
54
ets
fade
fidel
gir
json
lil
leth
null
panda
von
##iors
##iens
##camp
##65
##mation
##atra
##inagar
isc
##encing
docs
##itivity
##lee
thar
##aser
bears
beams
##kee
revel
moz
fright
traction
trucks
aliexpress
unpop
##ighter
abused
##unding
spont
acm
engaged
##ghazi
expend
resur
outlet
brut
disres
chel
bane
incent
invitation
accountants
monroe
womb
businessman
infj
throne
primar
proportion
factual
masterc
valent
harvey
entang
dealership
brook
billions
walker
studios
landforms
fauna
portra
filmed
hindust
wwi
cookie
14th
hype
merged
revolve
ghana
hydra
sandy
nitrate
architectural
icpc
picked
violate
regardless
benghazi
chromebook
upside
brazilian
romania
pretend
knees
heavily
gears
prostitutes
buddhist
biodi
wondering
frustration
frustrating
##oplasm
searches
intuition
emojis
recycle
invalidating
mathematician
diplomatic
ammonium
intentionally
astrophysics
azerbaijan
etiquette
1b
68
aunt
borders
dear
diz
dhar
jones
lany
m3
rang
rats
rhet
##core
##kil
##mons
##yr
##reciation
theists
infty
isi
##alia
reaches
##uron
fry
tru
ally
alto
alchem
sevent
therefore
phant
##ivores
##ghters
##pta
resort
reserved
##bson
##sius
personnel
carriers
monoxide
freezer
downgrade
charter
formats
indoor
##raction
##ahar
specs
confed
##ikatt
natives
speeding
punct
souls
demonetized
30s
microbi
organis
competitor
fargo
ethanol
kara
enjoyable
violation
daughters
kidn
disprove
purely
telangana
richer
polyg
counterp
aspirin
sponsors
component
icons
clicking
ripped
##karyotes
trigonom
assigned
assignment
vedas
brushing
photographers
patriotism
metaphor
shaft
responsive
imperialism
lithium
sarcastic
scooter
chords
annex
hogw
asean
bloomberg
inexpensive
pneumonia
insomnia
jallikatt
rhetor
jallikattu
1m
900
cts
crab
dare
dice
dile
hood
hsc
hbo
hrs
jenn
tear
vu
##lines
##vi
##vy
##14
##hr
##years
##bot
##ori
##orking
canal
##ilit
##rot
stair
shoud
##illes
##riya
choms
conven
alum
##logy
heater
intake
intending
lex
##ivism
upwork
syrup
offshore
emma
americas
repo
##tsd
bibl
##apping
swall
tvf
returning
edx
oneself
functioning
organism
romans
branding
promising
clearance
radar
moderators
bhu
cricketers
fitbit
robb
##ija
##walker
renting
bonding
focusing
embarrass
scripts
streak
separately
beaten
campaigns
registering
colonize
tribunal
tyre
nagar
tennessee
dilation
gibson
nsa
srcc
vanilla
spirituality
wasted
rowling
enlightened
barely
delayed
alleged
lsd
descriptive
disgusting
monopoly
morocco
anthropology
charismatic
shimla
kardashian
zomato
cantonese
antimatter
balochistan
chelsea
biodiversity
chomsky
5x
aj
brav
dunk
fog
gix
genders
h2
jen
pd
tears
vast
##tx
##zheim
##wah
##fin
##fing
inherent
toll
##arre
##arth
##iches
##stein
##asy
##iso
stance
##ecess
##opard
exhib
chol
meg
demat
alzheim
clan
johar
muse
bride
novice
emig
efforts
curly
##ensional
infr
throws
##cobar
insect
##psc
surren
costly
postgrad
controls
equator
showed
##ernity
applicant
penn
bros
determin
slip
sliding
californians
mixers
battlefield
treats
directions
groupon
liner
fluor
colder
attacking
packs
missou
inventory
##comed
bhatt
##liers
homoph
denver
gymn
dimensional
huh
queue
skywalker
responding
rajya
90s
grandparent
maintained
dawn
typh
optimal
coworking
breeds
copyrighted
judgement
extraction
hatch
escobar
bahad
menstruation
ravi
shapes
celsius
sundar
##ogenic
revolt
scottish
heterosexual
bankruptcy
dehrad
ottoman
guidance
bhutan
sampling
forensic
hibern
dizzy
phantom
karaoke
jennifer
bure
dirt
fou
hv
mec
nos
pw
pine
tn
tent
##oh
##ao
##gie
toshi
forth
lipton
##verbs
reinstall
##urable
exter
##ulas
deodor
##apur
goku
##uster
acca
resem
outstanding
peroxide
##duces
contents
noam
nostal
buyer
buyers
herpes
1000rs
backlogs
colleagues
payroll
##arks
valve
haircut
majoring
godd
extensions
showcase
meta
russ
patch
patents
baraka
##ostat
depressing
angles
suns
sunburn
methodology
millenn
nuke
##odegrad
##asonic
personalities
shopify
laundry
nitric
judges
targary
detector
sixth
dryer
lasik
synonyms
supporter
flagged
halls
indicative
threats
cvv
lucrative
audition
rectifier
fertility
pedoph
riots
hunger
uncertain
arthritis
reproduce
mushkil
comedian
reinforce
surprising
mermaids
coincidence
chromosomes
mormon
recreational
oregon
sulphur
navigation
##informatics
trichy
hiccups
samaj
crowdfunding
lifespan
hydraul
biblical
swallowing
bahadur
dehradun
56
ck
gc
gau
h2o
iift
lann
mul
qm
ssl
sisters
tin
tire
urug
vcs
voices
wig
wick
xy
##gars
##was
dop
forbes
##roit
##verages
orph
##ppi
mega
##iere
peers
abbre
##udd
adidas
premature
grat
grill
grounds
##lectric
pran
persist
##leton
informal
operators
keen
transf
biodegrad
detroit
energ
webcam
valued
retired
defines
milit
demol
freem
exploration
sharehold
cuts
recruited
18th
smokers
sunlight
mistaken
geographic
copies
petition
homo
revise
ecu
floating
respective
commercials
paths
collector
referring
duoling
mirrors
kitten
disputes
garage
discontinuation
advisor
grammatical
iconic
shocking
ashok
kilog
gsm
tigers
##what
##hydr
synthetic
roshan
bcg
lungs
porcel
neurons
wrestling
refresh
threesome
pepsi
abruptly
disrespect
hogwarts
gixxer
alzheimer
postgraduate
missouri
toshiba
goddess
abbrev
duolingo
4000
69
97
92
dermat
erection
gest
gol
iod
ions
jbl
jnu
mrs
ned
sang
taco
##rc
##side
##aired
##nom
##77
##map
##ergy
inver
invert
##enol
##ione
##acs
##issi
stated
##eck
liz
liability
libra
rever
##sei
neon
##essions
notation
alot
lovers
plast
appet
coat
donation
##ivated
##quil
##abling
tapped
taurus
prescribed
examinations
sauron
brid
consol
smash
##ocial
generic
##sche
##screen
##roller
hairfall
elab
guides
guidel
enthal
##ocks
##biosis
##aik
kindness
resting
edison
civilian
##ushka
walter
urinate
liners
approve
fewer
filmm
quantities
racial
##bean
##hammed
predicted
semantic
hamster
##breaking
nyu
manipulative
targeting
aspirants
quoran
norms
bioinformatics
athlete
omega
##rosion
rectangle
linguistic
awarded
guests
hangouts
220v
impeach
tissue
multiply
sprint
abandon
wolver
batsman
mysteries
moistur
massachus
rrb
unlikely
symbiosis
reincarnation
clouds
kazakh
lethal
dilem
porcelain
guidelines
enthalpy
63
650
bod
bending
bamb
cin
gk
hz
hipp
jb
jin
pale
ptsd
wired
xii
##rick
##aj
##dream
##miss
##hz
##bia
##beth
isa
##inge
##itudes
##ilst
##ishers
##rod
stadium
##amins
hab
##igm
prox
mahara
mapping
##ulates
ascend
##osa
alloy
##angular
phases
heated
intimate
adverse
marital
expose
findout
overload
cargo
curves
colleague
##ocon
winners
corgi
mineral
surat
valence
worthless
macbeth
metrics
selfies
panama
1970
stays
safari
connecticut
baluch
2003
creator
verbs
packaging
consideration
brave
mississi
occasion
##ffered
homeland
inclined
potentiality
mbti
symbolism
translated
locker
possibilities
lateral
malaysian
angelo
categor
beside
heavier
ambed
kaine
giants
suspended
diagnosis
revealed
jawahar
vishnu
surfing
zeus
amplitude
plugins
arya
kanpur
obviously
ozone
convex
sophom
mysterious
betrayed
juris
descendants
horcruxes
troublesh
referend
biochemistry
laundering
unpopular
wolverine
massachusetts
baluchistan
mississippi
1s
bend
bree
fah
grab
iaf
mens
tf
tect
##rations
##rates
##dated
##37
##heon
##heit
whilst
##inates
##owa
##itt
beij
reapp
shaking
##urai
##ags
trilog
##ulus
alter
compile
amm
anytime
pharma
imper
premar
leagues
##arya
intercept
reserves
perp
relay
writes
overhe
numb
monot
emir
traitor
ansys
profound
proficiency
avoc
governance
basin
messed
endoplasm
costco
popul
boycot
1200
reticul
##ricular
modulation
touched
cycling
barrier
bloggers
contacted
larry
likeli
nationality
preferable
describes
hosts
annually
elsewhere
squir
mothers
qualcomm
necessarily
israelis
drawings
architects
rolled
burst
burnt
sweating
hua
representation
bombing
dispos
dispose
transformation
contraction
mcg
premiere
32gb
comparative
stuffed
lesbians
uniforms
amendments
bullets
fifth
believes
occupation
naval
dissoc
dumped
sweetest
plateau
pixar
serials
perceived
pirate
##written
cersei
fascism
gigolo
anchor
rodrig
metallic
ayurvedic
gopro
refrigerated
saturday
stabil
acknowledge
tampon
hurricane
bacon
semiconductor
unprotect
opponent
landscape
valentine
alchemist
alumni
grandparents
uruguay
dopamine
biodegradable
ambedkar
sophomore
fahren
beijing
endoplasmic
likelihood
67
76
750
91
a1
arist
bpm
cul
dba
ese
fri
fame
goth
hann
j2
kund
m60
npt
pich
pace
pup
sink
tyl
tqwl
woo
xav
xcode
yug
zer
##rh
##sen
##zymes
##pit
##had
##hya
##xx
##38
##anian
##arius
##ilation
thus
ongc
myopia
hag
##irm
##urious
comcast
##antly
seag
##wei
##akin
hered
imped
##idepress
##quila
##avail
##ghz
mukesh
tequila
##izers
happily
outdated
preserve
##dev
evolving
boom
##owns
carib
genres
regulation
redire
indigen
finals
hoard
fats
openc
prosecut
fallacy
##iki
idle
demer
billing
demonetise
armies
##ibal
textile
immoral
multiv
deeper
activa
operated
collar
selecting
cleaner
observ
vegetarians
claus
integrity
definitive
burger
analytical
sensation
sensex
naming
queb
##esterol
walkers
scholar
introverted
contractions
ultimately
suspect
witt
unsafe
accelerate
restrict
northeast
sacram
panties
secularism
stylish
flexible
distractions
vibration
ayurveda
execute
saint
##itarianism
hemisp
vendor
dalits
coordinate
championship
borrowed
folks
pyramids
caucasian
contradict
ernest
spoilers
pistol
humidity
wardro
bulgaria
##atomic
jewelry
mastercard
microbiology
cholesterol
bureau
bamboo
referendum
reticulum
fahrenheit
pichai
1gb
61
aakash
bis
bain
bak
dess
fellow
khar
nift
ost
pins
rai
sessions
woke
##school
##gal
##ev
##zu
##zzy
##mal
##mans
##yrs
##faces
##bir
##reed
induce
inmate
ist
dob
##arbon
##esting
stiff
##ading
##utable
wears
fractions
makers
mafia
trinity
enzymes
alib
unsc
unrel
abor
##unct
##andrum
afcat
scroll
##akan
clark
joh
leaf
newer
accum
accred
grain
blister
##ogene
brass
discl
electors
actuary
accountancy
underground
understood
developments
helmet
##fulness
everytime
readers
opine
##ledged
incredible
priest
affection
populated
animes
guwah
courier
edm
demonst
demographic
gains
antidepress
iitian
slam
mixes
##cci
##ibrium
reacts
receiver
tracked
promised
oils
packers
customized
missions
olympi
towers
cgi
archae
illegally
treas
karl
protector
displaced
teleport
sexuality
streets
requesting
risky
sensitivity
closely
gandalf
utility
walked
transforms
bullied
polynom
₹15
jerry
pumps
abolish
composer
concerns
lucy
stalking
psychiatry
membranes
raven
respiratory
matthew
trivandrum
ignorance
cavity
1947
1971
spaceship
mushrooms
jainism
tangible
conclusion
insights
clarification
xlri
evapor
vivo
nurse
proportions
schedul
neighbors
coworker
dictatorship
meerut
brooklyn
hibernate
premarital
unprotected
tylenol
alibaba
##ogeneous
guwahati
cone
dw
farts
gwal
h4
hint
jong
jason
kend
kai
pala
sith
sag
sne
troll
tuna
vy
vess
##gence
##zac
##zema
##dles
##mill
##hell
theist
##anna
anus
andre
stip
##aman
shang
shoulders
asbest
neft
unp
abund
goi
##endicular
acetic
manif
timet
covert
allergy
##ptic
upward
exposed
butts
elective
comma
mona
herb
curable
hispan
forming
goverment
propel
waterproof
technic
interviewing
camel
harsh
greet
assurance
lasting
extrac
projection
capability
sells
correctness
turtle
verge
hitch
capitalist
collision
excuses
globe
ethi
observation
ruined
mails
eczema
rockets
240
##hamed
smells
madison
odisha
schemes
cpm
includes
escal
represented
witty
possessive
sdk
furious
vlc
arrival
scotch
kickass
cdma
sansa
hungary
kila
##pcion
extroverts
digestive
familiar
sediment
pandora
romeo
attachment
roughly
pentium
implant
aryan
concepcion
stainless
warriors
ellen
wolves
disappointed
twenty
wizard
buffett
settled
encrypted
downsides
dolphins
insanity
steroids
sleeve
nipples
dynasty
ouija
telecommunication
etsy
entanglement
infrared
targaryen
perpendicular
indigenous
demerits
gwalior
1a
911
bent
bice
brib
bounce
fd
hk
hank
jpe
kel
kpop
l1
lb
nurt
pess
rti
zika
##oking
##iating
##cin
##can
##the
##tal
##nis
##vak
##wadi
##dog
##hous
##bad
##bound
##hett
inqu
##orrent
##eda
beverage
stunt
##irable
reagan
##adh
prozac
##pppp
atac
alger
##aint
##wealth
phuk
hepat
intent
coc
leh
afterwards
allot
##ffman
expon
teresa
daydream
prone
relating
serbia
bran
brom
##icking
commute
incon
smiles
cau
500k
solic
genie
viewer
viewers
technologically
##ropract
##aze
webpage
harbor
nonpro
assert
talaq
12000
capric
civic
losses
cease
ids
punished
steven
barat
debug
##ships
verse
bitch
mathematically
analyse
##india
viagra
hosted
millionaires
gifted
discard
birthdays
purchases
contributed
freshmen
arrays
dressing
scammer
displayed
transformers
tournam
prisoners
procure
liberalism
garbage
samples
ssn
counterfe
##boro
hospitality
promotional
mahabharat
bsf
##ulsion
chlorine
chiropract
paranoid
crashing
pads
whisky
attempted
stretching
tonight
fleas
implants
inherited
allergic
ammonia
supermarket
armenian
tornado
roger
inertia
nlp
grapes
proprietorship
eyebrows
envelope
medioc
fourier
reinforcement
huawei
caribbean
dessert
asbestos
phuket
78
aest
ald
bry
cass
dou
foster
hary
kfc
niss
osh
picks
rises
sins
zee
zoos
##cupid
##tec
##equ
##dn
##13
##hus
##hang
##forced
##26
##aron
##arith
arena
##isa
sticks
##otle
mynt
lime
##adata
orbits
chuck
enrol
amino
gov
spit
phobia
scrol
##ipher
##akar
appare
grants
##uea
##upac
pose
chew
##fta
calcut
##iances
median
blackberry
bigg
empir
transparent
suppliers
strat
hotmail
advocate
catering
processed
riddle
postp
swap
termin
projectile
##othermic
applicants
privat
reduces
breaker
logging
headlight
freight
raf
##oids
liters
trials
baleno
avoiding
portion
deepika
capitalists
##advisor
##aughter
karate
prints
halal
miscar
layover
gadget
sadness
dimples
impressions
pulses
bootcamp
sapiens
airports
claiming
ranbir
validity
replying
thermostat
dominated
casino
rivers
threatening
derived
advisory
inspires
disneyland
restraining
dishon
sucked
chloropl
cupcake
##mohan
poisoning
authentication
prayer
searh
motorcycles
boundaries
mocking
coughing
siber
ancestors
irritated
explorer
titanic
royce
royale
nicknames
inferiority
convection
sarcasm
gyro
herbalife
loops
unstable
accelerators
pierced
equilibrium
viscosity
libya
hypocrite
pisces
microcontroller
expenditure
organisations
mecca
lannister
appetite
elaborate
kazakhstan
isaac
jurisd
trilogy
hague
redirect
quebec
kilauea
jpeg
atacama
cauvery
baratheon
myntra
calcutta
6000
7k
bart
cyp
dp
dread
fp
gin
hass
kite
ld
pel
ron
roc
tert
vault
##rison
##non
##gic
##doms
##bh
##bol
##bows
##onics
andy
##asis
beating
hav
##iri
rehe
produces
##ifiable
conque
alia
unaware
compose
suv
abu
spa
lod
scrape
heath
intr
intjs
didnt
##astra
marily
allied
happier
prescribe
brace
winner
transsexual
supplier
affinity
incredib
priy
redemption
##loader
hoffman
catcher
haram
humanities
assad
##lla
morph
eyed
logarith
antis
publication
scientology
supervis
barium
iqs
##haw
convicted
embar
silence
narrative
144
ranks
##comp
tableau
continents
##shot
yorkie
cryst
displays
perfection
craving
feeds
picking
frequencies
scripted
italians
tarant
collections
odys
ladakh
flashing
dominate
discoveries
forwarding
autobi
unsolved
dentists
tabs
etg
##trade
criticisms
satisfying
extracted
dissert
pillow
exclusive
bahamas
entertaining
constructed
sikkim
beggars
panty
arbitr
udacity
modify
absorbed
refugee
turbocharger
titanium
telescopes
declaring
phenomena
hookah
psychiatrists
cortex
dbms
skateboard
ddr3
circumcised
dividend
apparently
unrealistic
lanyards
russell
emirates
haryana
nissan
conquered
marilyn
bt
bore
cached
dt
eps
fiver
hence
iowa
jak
jsp
kabad
lor
lind
rd
rick
rade
ranch
sult
slog
tread
tues
vo
vand
vald
vape
##cal
##card
##ride
##rise
##nit
##gical
##ebr
##uct
##via
##vada
##bone
##anu
##oning
##encer
##least
##ilion
##asive
stink
stool
##amus
rebel
##ados
shob
##lysis
##agger
frm
aso
ashamed
##usible
conan
atleast
alan
unavail
##arta
sores
##apolis
##heric
plaster
evernote
##ishi
mario
newbie
##ods
blamed
##emia
prism
brings
desired
incogn
agreed
##owned
cave
curios
##lication
skirt
topcoder
thrust
nowhere
humour
secede
courage
charming
biologically
depri
airsoft
factorial
advising
homeopathy
autonom
entit
futur
12k
militar
touches
slope
patagon
massac
lotion
barrel
##osta
practise
functionality
westeros
16gb
okcupid
mentality
turtles
tracker
uberx
ports
commitment
convinc
transferring
dieting
stripe
csir
##comes
destruction
listened
layout
curbed
palms
envy
declined
pitt
benj
collective
loads
rainfall
contractors
shutter
crores
bullies
butterfly
cuban
pranks
bulletproof
lighting
dilute
affiliated
lamar
suspicious
##oscience
attempting
solely
upgraded
sketching
verbally
theaters
peanuts
permissions
reinforced
abdomen
drilling
ceremonies
nouns
laplace
vimy
downt
looph
bronze
twenties
rudest
veto
commodity
docker
reversed
unnecess
immunity
disciplined
euthanasia
portrait
ecuador
ascendant
jawaharlal
troubleshoot
##arbonate
aborig
shanghai
mediocre
priyanka
valdosta
320
aerobic
bout
bale
cite
dac
dorm
edu
ginger
kerat
m2
mud
owe
rin
rcc
tcp
vip
##tree
##nan
##wick
##dings
##po
##pay
##mother
##85
##bury
whirl
inactive
##org
doom
howard
anderson
##asse
onions
##isal
styl
##urricular
##riku
##agpur
##ifty
chub
tran
trav
##antically
cohen
##ellular
##berries
tejas
blast
##emen
saus
wrap
descent
buys
carl
##lette
##ensely
helm
importing
##yson
crust
inflam
roor
rover
simulator
formulas
ministry
deton
legion
costa
openly
extensive
capabilities
taxed
logos
ukule
turnover
barry
volks
higgs
satire
##ographies
precise
vacations
screenplay
singaporeans
deadline
sanriku
##osphere
surviv
kingdoms
misc
independently
kashmiri
jungle
flooring
rejects
documentation
complexion
hawk
##continent
decreases
octa
churches
chandler
rhode
nafta
minorities
##rifying
wipe
versailles
falcon
lambor
shifted
buttons
kalah
gallon
intellectually
merchants
pipeline
circulatory
synthes
chromat
kannad
tunnel
welcomed
tensile
idiom
vendors
bizarre
cyanogen
climbing
hijab
elasticity
mncs
hermione
accelerator
tensorflow
isotopes
##wagen
fluctuations
bicarbonate
whistle
aroused
overpric
unfortunately
720p
spontaneous
ckwl
gauge
orphan
bridges
avocado
xavier
extracurricular
inconven
capricorn
osho
##husi
fiverr
kabaddi
radeon
shobhit
curiosity
convincing
volkswagen
370
5g
59
aol
bog
cbi
fdi
folk
g2
grip
ike
jh
m1
nre
nol
nifty
pors
turing
vga
vtu
voy
wu
##lif
##commerce
##nr
##kk
##kell
##88
##jah
##atile
##atio
##rels
theor
inh
ism
thong
began
stating
##oting
##irk
rewards
##adder
shud
shaved
##umble
indiffe
quar
maz
chill
asap
dehyd
nevada
uni
uncl
unless
##iev
sued
suite
suffered
amit
anyhow
acron
margo
##quin
##ques
##avas
##ghini
haskell
upwards
interval
interrac
reside
thinker
coloured
outcomes
perimeter
dayton
##athi
sake
bras
noble
visits
monoc
curd
internally
infp
matri
roi
repel
opens
suppress
registan
avenger
formally
bucket
indira
interviewers
designation
hotstar
proves
obese
enthusi
##ankar
##brush
taklam
commonwealth
##ikhet
psycho
iitjee
candle
terrestrial
ipu
186
185
189
urgent
recept
originated
precious
operational
1300
selective
csv
squared
##laim
switches
cooler
identification
karakum
listener
enjoying
entrepreneurial
burns
attendants
damaging
mutant
hiking
association
routes
weddings
jailbreaking
representatives
##iabad
ranikhet
contained
agreements
journalists
mascul
amps
aadmi
etl
rahu
augmented
substant
literacy
mortality
##ulsive
clustering
rumor
spreads
cosmetic
fermentation
rectangular
screenshots
rebell
marshall
1965
fertile
mesh
privileges
mixtures
mobility
physiology
reproduction
cylind
outsource
comedk
pencils
grave
downvote
saturated
chihuahuan
pancakes
surrounding
neighborhoods
correspondence
veterans
persuade
vizio
overthinking
plausible
uranium
stranded
metallurgy
appropriation
himalayan
pavilion
turbulence
surrender
inverter
reversible
maharaj
rodrigo
hannibal
johnn
palawan
slogans
roorkee
ukulele
lamborghini
kalahari
taklamakan
41
820
dmt
gill
hay
i20
j5
jol
kos
kaf
loot
lava
o2
oun
oats
pens
ramp
t1
umb
vig
zap
##iro
##rane
##away
##vm
##vance
##pable
##hat
##ytes
##bat
##inas
##onacc
##aler
##iche
##storm
##esters
##ayam
##addy
shak
movers
##urit
tragic
asph
notion
unified
##ective
##apar
peppers
##angel
phon
scare
##lose
timing
leaked
leban
##gered
arteries
blender
earlo
##uba
contr
deserves
noisy
carp
monolog
buses
curl
goose
mediate
reps
reminder
empower
##forest
deport
##script
elbow
assam
distinction
155
sleepover
##culus
lighten
morals
ceos
calculation
publications
demonetising
puts
2000s
ordering
candles
accessing
accessible
creature
packet
coloring
##ouncing
describing
cooker
paperback
sounding
qualifying
ballon
plato
philosop
kisses
castro
##ringe
sweets
skydi
charts
catching
bayes
hawala
nicmar
casc
experimental
crooked
tyrion
scotia
repeating
venom
venmo
fifty
diabetic
circumference
simplified
infections
illnesses
honestly
rumour
folders
srinagar
exclus
atmospheric
psychiatric
discriminate
diagrams
syntax
1962
drake
1984
sealed
jrf
orbiting
obligations
spacecraft
mermaid
mormons
researchers
fibonacc
intolerant
catalytic
1980s
sublime
superstition
saree
rye
stubborn
dhanbad
dwarf
prohibited
microprocessor
brutal
trigonometry
exhibition
transfers
kharagpur
rafale
fpga
tertiary
incredibly
dissertation
tuesday
patagonian
unclos
matrimon
fibonacci
390
4kg
940
aka
ajay
bail
dancer
fred
gul
gast
gyn
hl
kle
lol
lite
lub
lending
ota
qoura
til
tul
tyson
vail
wy
wool
wii
##eb
##ebb
##uke
##whe
##des
##dale
##mond
##hov
##fm
##atur
##ativity
theses
##inational
inacc
toes
##itus
##omo
##ications
##isers
shat
##diep
coma
quart
exceed
ch3
chant
deem
conn
compact
goebb
logs
##andy
scrum
##aller
workflow
accom
resid
##izational
blaz
outfit
brag
wrink
overflow
desc
improv
mono
sheep
##ocation
kevin
ims
deliber
depict
##psy
traveler
handic
##hesh
##hesia
hairstyle
answerable
comeback
godaddy
entries
builders
equipped
painters
extinction
##ernal
parach
190
latitude
iitb
litter
pathetic
##holes
microeconomics
organizational
traders
coldest
neglect
farmer
awful
diving
financing
sonic
alternator
holdings
seemingly
preventing
denying
ec2
resolved
influences
anonymity
conductors
dimin
martian
handset
distribute
vocals
wisely
professorial
capacitors
grande
opposition
##radamus
##ukone
crops
bluest
editors
chairperson
therapists
submitting
bottled
oliver
ufos
rankings
toilets
ohm
padukone
hopeless
chronological
briefly
laboratory
modified
granite
piercings
deduction
licking
ruler
tolerate
allocated
sophistic
surprised
vampires
researcher
datasets
prolong
recurring
counseling
provisional
prophecies
crucial
vulnerable
pewdiep
friendzoned
soundtrack
ghaziabad
kanye
counterparts
emigrate
samajwadi
hydraulic
##hydrates
iodine
dilemma
j2ee
stipend
pessim
counterfeit
autonomous
kannadig
overpriced
porsche
asphalt
mediatek
philosophers
inaccur
goebbels
pewdiepie
2a
83
bj
dasa
dizz
fores
fmc
gil
gord
kut
kpm
loosing
m7
nash
pec
rapt
sic
tp
tm
tzu
ure
vmc
yell
z3
##olete
##cr
##tp
##watch
##dh
##pace
##yam
##bank
##inced
##erning
ingr
##oro
##alog
##ometers
##icherry
##store
beverages
##rots
stu
##verb
somewhat
##rients
exempt
chau
##ulators
deer
alkal
unread
usain
compute
abort
##unning
scul
heels
impot
appliance
clips
upi
archer
disrupt
disasters
disabling
banner
##def
desires
noah
solvent
crashed
deciding
creed
rsus
classify
bankers
endors
endurance
brew
homepage
handled
centri
somalia
hairsty
harley
posters
sentiment
currents
talents
12v
apne
metam
reviewed
paras
chanak
brogl
modulus
demons
raipur
slide
slav
maggi
credential
stew
barcode
smoker
epub
25th
footage
gluten
##flies
maya
squirt
bhog
destruct
obsolete
40s
enjoys
stationary
halo
dublin
robotic
arguing
##atica
mutually
senator
assistants
targets
chickens
##afin
collected
crossing
crossed
duo
honeywell
browsers
sorting
masks
executed
ringt
shutdown
broadway
aeropl
indicators
indeed
clocks
venice
renewal
scandals
kickst
kicked
##iciary
cartoons
mortal
diverse
davis
##ersonal
lightsab
assassin
settlements
discriminated
guardi
eradication
surfaces
hypnotism
emerge
aaa
rappers
spells
meditating
sandwiches
hsu
loyalty
templates
isolated
chromosome
legendary
wattpad
1960s
shrimp
repetition
compassion
d5200
wallpapers
pondicherry
carbohydrates
alkali
neurological
nostradamus
supplies
hindustan
seventh
nostalgic
definitively
##manship
scheduling
hepatitis
apparel
miscarriage
dishonest
incognito
deprivation
whirlpool
chubby
interracial
daytona
dizziness
kpmg
hairstyles
broglie
81
bount
baked
edible
gbo
gums
lank
mim
nim
nause
piv
tilt
ue
wah
##oir
##lists
##cet
##cled
##tim
##gged
##eled
##worm
##wari
##pu
##mite
##hou
##yani
##front
##inum
inhal
##orus
anarch
##ardi
##omin
##ometric
##stick
cana
thapar
haiti
mohammed
##uty
##feld
chak
deja
##usal
##inees
##iston
##aren
notify
uned
peel
sein
seiz
amway
acer
intuit
##astri
##astically
bytes
cling
instruction
##umps
blues
earliest
##ogy
poe
brack
waters
offence
overcoming
warner
monog
weightage
traum
traff
trapped
##licit
differentiation
lawn
cran
repaired
1024
##ductors
salty
affirm
hackath
aven
##ashi
highschool
imt
imac
##cover
insur
depicted
##arkar
drums
economies
surpass
popping
sworn
psat
guided
retwe
apology
deflect
attracts
cereal
milan
irres
jehov
virgo
superv
slaughter
sharepoint
refusing
practiced
informed
sung
verses
mistress
multim
promo
inventor
##ophy
convinced
mayan
bulbs
squat
domic
frontend
merits
##valued
teachings
sudan
##awning
defining
translator
##offs
castor
ulcer
detectable
kitche
ivanka
croat
dentistry
tagged
##ranti
threatened
nominated
migraine
criticize
commands
predictive
simpler
proposals
shocks
geniuses
compatibility
assassination
evaluation
phenol
surnames
niger
lipids
otp
discounts
munich
ravana
protests
compliments
atlantic
juliet
contests
riy
whitening
boson
swallowed
hubble
deployed
demonitizing
superheroes
tangent
censor
roommates
metaphors
wilson
shelter
sulphate
shifting
soppy
intolerance
fracture
747
instructions
drowning
rlwl
oakland
vmware
maiden
orchestra
primarily
robbins
embarrassed
wittiest
sedimentary
nonprofit
procurement
jurisdiction
supervisor
sultan
johnny
apnea
chanakya
06
640
a5
cst
ein
fx
fencing
gome
gim
ganes
graham
holog
ive
ibs
jams
k5
lav
mour
rams
sits
tant
uter
vic
yawning
##lation
##cod
##tail
##ean
##vest
##mouth
##masters
##bell
##°c
whipped
##inr
inception
ish
anest
aniston
##ican
##etted
##ask
##isely
beers
##enter
##ented
stake
lig
reiss
rebuild
sham
mohammad
maurit
chit
chim
chili
##nty
meh
asyl
compelling
abn
seper
goat
goodby
spank
spears
heap
intensity
##actic
preview
feather
##raj
jokers
jogging
donor
##abh
upes
arun
grind
grows
tah
outlets
##ignment
##upal
brides
counts
flows
monso
monte
trauma
skirts
attire
crunch
decry
marketers
saliva
systematic
imax
mines
biotech
drastically
hover
obes
centered
harsha
rider
subcontinent
fatty
mechanic
retro
methyl
showers
restored
##version
privately
demographics
1950
logically
latter
header
moms
wrongly
statue
bali
##iban
organizing
meetings
trades
2500
copying
13th
1700
continuing
graphs
archive
coolant
platinum
2100
tamilians
eventual
dyst
palo
ratios
jackie
telek
reciproc
sensory
routing
routines
surely
displayport
acquiring
paraly
wiki
rainforest
dispat
arijit
appliances
sorted
darje
freelancers
nepalese
scanning
derive
nios
chocolates
sponsored
stickers
restriction
spyware
cinematic
srk
settlement
louder
merchand
champion
joints
tunis
baldness
nerd
caval
legislative
fuels
involvement
sharks
jellyfish
https
infantry
hormone
pyramid
caucasians
d3300
chopra
annoyed
codecademy
adventures
gazetted
thirsty
embrace
miserable
wallpaper
ankle
nadar
##yroidism
pendrive
inheritance
distributor
trolls
recursion
licensed
prostate
rhetorical
uncertainty
moisturizer
jbims
sacramento
headlights
##computer
entitled
gordon
bhogle
jehovah
gomez
goodbye
darjeeling
79
a6
a4
a10
bri
bapt
cbr
fries
gis
gren
hive
nes
nain
nord
owl
rar
tac
tess
vou
wd
yard
yoda
##oven
##rin
##run
##rices
##rank
##nick
##erer
##uance
##ws
##mand
##mys
##fo
##fect
##400
##atures
##athetic
##heiser
##iners
##erate
##onal
injust
anakin
##arse
##aland
##leck
thief
ongoing
##isen
beeth
stove
##aghett
ifb
chsl
traged
dex
compart
spaghett
plc
##aku
adren
clint
accus
##berta
##emorate
pores
poets
sax
overpop
commemorate
desirable
evidences
agra
lovely
boon
curv
curing
weighted
solids
winters
crashes
matrices
reputable
affleck
corning
increment
avid
classy
governs
drupal
finale
interviewed
subsequ
mechanisms
##inesis
mainframe
smartly
iris
pointless
calculations
latent
jere
masses
constrain
cyst
##ienna
norse
introduct
##criber
britney
traded
emoticon
explains
filming
performances
misses
featuring
##jobs
celebration
squats
##tmeter
firebase
jewell
coolpad
alternating
westerners
ramen
easter
critics
launcher
concerning
ratna
sometime
subscriber
floors
damages
smelling
airliner
wednes
sinus
bootcam
contracts
grandfather
firmware
authorized
bowling
visualize
conspiracies
indicates
naive
officials
scales
adapted
participating
buddhists
quadc
orbitals
peeing
brokerage
laughing
homeschool
marginal
protestant
pandas
achieving
selena
##guard
rosetta
parliamentary
sasuke
bidding
cavities
recycling
danish
benchmark
hundreds
coordinates
downvotes
exceptional
submarines
overwatch
reconc
screwed
hormones
gathering
sikhism
lactose
decomposition
zoology
tirup
pushed
grizz
armpits
balloon
kabali
rescue
fluorine
deodorant
sunset
ashoka
abbreviation
hemisphere
treadmill
nolan
masculine
##ranean
gynec
seinfeld
riyadh
asylum
obesity
telekinesis
beethoven
bootcamps
5c
520
86
aims
binding
ci
cher
dushka
ect
erosion
fury
gat
gan
ih
iiser
jug
kas
lak
mla
niet
nasty
oculus
pour
pony
sill
vienna
xen
yemen
zed
##lbs
##gware
##eep
##uates
##ucc
##dc
##jana
##hef
##heres
##oria
anemia
##aling
thurs
##rose
##entin
##otroph
##otivated
##iran
##ignty
reaching
shine
shout
##ople
queries
mait
chow
merely
##ths
ats
##anti
unl
ambit
spine
spices
plum
intensive
impract
impulsive
2030
leverage
##qual
accord
interfe
blown
theirs
recess
##ubali
pock
reliab
cheater
noises
evangel
undert
themed
##veloped
belts
effectiveness
lah
infidel
cori
##onders
mins
depending
##pshire
dried
economist
province
obey
postage
postpaid
##ahu
generators
hearts
futures
15th
benefited
pengu
edgware
modafin
taxable
headed
snaps
slr
cycles
accepts
fixing
reactivate
contacting
prevents
saturation
##habi
summar
##rawl
precisely
twitch
screening
gamer
sincerely
collage
updating
##tawa
hyped
qualitative
##ritical
maxim
sanct
##miit
relevance
essence
combinator
boxers
measurements
icai
judgment
violations
attendance
hampshire
constitu
alongside
commenting
vitamins
stanley
despise
validation
tutoring
scarcity
revolutionary
polytech
villains
kochi
homosexuals
indefin
clockwise
cdac
necklace
ejaculates
mamata
spreading
sibm
eliminated
##ascar
##petal
zoho
365
ottawa
munnar
mlb
witnesses
pirates
cursive
behaviors
nanotechnology
vaj
multiplication
fateh
inspection
lnmiit
challenged
##orphic
lokpal
hijack
geneva
highlights
conveyancing
deducted
alerts
prefix
vinyl
a380
gemini
tossed
prosperity
sovereignty
arjun
vowels
unicorn
finnish
overwhelming
convenient
inherently
1970s
hereditary
hoarding
multivit
₹15000
daydreaming
chiropractic
cyprus
benjamin
helmets
deemed
sophisticated
sculpt
centripetal
domicile
nainital
jeremy
introductory
wednesday
impractical
modafinil
450
82
9g
bust
brawl
dor
dab
deng
dns
fission
gab
jig
kangana
pagan
rug
rto
sie
sak
sier
tint
tides
vest
vall
vern
##odi
##oft
##len
##rich
##rous
##aquin
##zo
##pow
##18
##bee
##blow
##95
##jal
##atin
##anad
##etrics
onwards
##isk
stern
storing
##amation
##otion
reass
##adan
##adia
##opy
##opot
##uri
##urd
##urfing
oranges
##ateful
exemp
chops
deval
alham
##ieved
peeling
wayanad
spice
afmc
phill
scram
##iph
learners
washed
coep
##ellations
marg
joaquin
newest
##iza
persians
disabilities
##redd
companion
needy
longitude
caes
googleable
backlog
infert
readily
maternity
simon
##issa
videocon
ideally
motive
##getic
travelers
greatly
surger
energetic
advoc
advances
catches
harness
gupta
sniff
taliban
methane
projected
macrom
parse
begins
quicker
logout
antonyms
patron
debts
walks
refill
16th
multinational
romantically
##engage
summit
competing
##ksh
customize
135
singaporean
hypoth
departure
discour
disclose
ballot
merger
cashback
medicare
academia
ecology
torrentz
supers
nitie
protecting
protective
wishing
palpat
hackerrank
planetary
fours
stressful
fairs
crimea
guitarist
virginia
apartments
revenues
devast
schema
virtually
espress
symptom
escap
paralle
analysts
albania
brahm
substitution
bulls
buddy
lacking
retailer
arrived
butterflies
cubes
dishwas
accomplishment
essentially
ethnicities
tricky
weighs
thinner
quadratic
indexed
clinics
sabot
investigator
adoption
circulating
1963
atlas
fascinating
penetrate
sloven
smoothly
aao
tortured
awakening
paraguay
idiot
billy
censored
jefferson
thunderbird
horoscopes
foolish
tubes
reconst
fibre
racket
nirma
rendering
sovereign
anticipated
observer
hesit
joshua
chandrakar
dharma
polygamy
mulayam
disrespectful
impeachment
polynomial
chloroplasts
jakarta
boutique
rebellion
earlobe
kannadigas
fmcg
kickstarter
bounty
pivot
spaghetti
curvature
jewellery
grizzly
palpatine
480
73
cis
cerv
cmi
dild
dms
dsp
daw
f2
fint
fancy
fermat
hrm
jinn
lice
nile
nmat
oman
pon
piss
r5
ras
rie
sine
seth
saga
wonders
##oever
##table
##ridge
##aver
##nik
##nheiser
##gular
##zi
##wat
##wald
##due
##pf
##mr
##haps
##fx
##foot
##´s
##orrh
toppers
anore
##estone
forrest
##ilot
thru
beep
##olas
reuse
revert
shih
moss
##illas
proving
prokaryotes
##chin
##ppel
mahesh
chasing
trous
##ulse
worms
worshi
deeds
##anto
##istence
alberta
##arte
##artney
##aper
abh
abap
spi
spat
spart
phleg
##ureka
##ountain
##uded
##udge
appra
preced
lever
##quare
##abil
arsen
interference
peripher
perhaps
serves
bridal
dismiss
agar
passbook
backing
mediter
infotech
101
105
genotype
creams
credib
transcription
earthing
imaging
grading
deplet
depends
economists
advised
provisions
obi
posture
fatal
generates
##grounds
##aphr
psn
psor
godfather
digger
lasts
trainers
showroom
macs
joins
parl
##versely
euros
panch
slots
allowance
ipv
volvo
directv
##marking
##lessly
reacting
masturbated
115
receives
##locks
epile
bloody
coldplay
verilog
footprint
peta
punt
erics
variation
automate
hostile
lynd
sonam
sonia
strips
illiter
weaker
absurd
necessity
denial
individually
ecst
ecological
##boxing
managerial
conceptual
focal
##ucated
judiciary
unused
##gae
regretted
semesters
scriptures
sennheiser
accidents
sweater
senses
ulcers
federer
chromecast
mentalist
duos
nutrients
shutters
mandela
aztec
obtaining
gearbox
lucas
naoh
sickness
succeeded
clicked
fellatio
diagnost
crowds
##aksha
surgeons
bahrain
pleasurable
##charging
alloys
fucked
verma
poorer
saddam
upgrades
misconception
bubbles
patriot
jayalalithaa
deployment
adjustments
transistors
110v
chamber
hanuman
armenia
astrophys
irregular
persuasive
barbados
cryptography
fertilization
armpit
strawberries
mccartney
swipe
expiration
xamarin
misunderstood
gymnast
millennials
dermatologist
habitable
mcgill
seagate
olympiad
evaporated
timetable
ranchi
ikea
foreskin
uneducated
injustice
clintons
lahore
sierra
alhambra
macromole
espresso
credibility
1kg
6k
aaron
c2
cto
ez
ead
eternal
gour
groom
iam
iupac
kail
kath
lpg
mk
mend
nth
oath
rall
rica
tux
ximb
##oi
##iards
##tens
##gien
##wire
##hot
##yon
##bas
whiny
##inho
anthon
##alu
##icate
##icient
##stack
##leading
candies
thrive
##isetts
shi
shiny
shankar
shastri
##opian
moses
##uras
##agne
##imony
fran
choke
mere
##antine
unans
undo
unwritten
##ooked
segre
##angal
amy
scent
##lob
##loqu
washer
workday
worksh
##avan
arise
expires
interfaces
##ogens
recorder
rely
brits
counting
jobless
polity
programmes
simulate
salv
salon
remark
cardboard
purified
avast
immature
classmate
minne
##neys
depot
##eneres
hardships
catia
harris
grew
##auth
specks
snack
hearted
123
paints
openings
parab
degeneres
psychologically
demo
optics
antig
jeen
starch
##ippers
killers
statistic
refin
angsty
mustard
multic
landline
136
rachel
identifying
revive
##beans
judged
burner
subset
castles
occurring
exchanged
##ussion
initiated
rapes
dispro
murde
pgp
witches
albany
bowler
jaime
decreased
1997
polyester
ccnp
interactions
progression
shyness
cathode
lucifer
##glas
territorial
instrumental
flavours
bearded
dialects
auditing
honesty
bathing
suspense
##builder
mamta
crowded
regulated
regulator
compressed
boruto
stereo
stereotype
vertically
champagne
pairs
mdma
gangs
shells
unfollowed
numerology
tasting
tastiest
dropshi
kurds
tsun
##iasis
skelet
desperately
evaporation
##oult
yeast
ventures
replication
shortcuts
massachisetts
rtgs
##rahim
pseudo
pseudoscience
circumcision
enrollment
geek
mantra
obstacles
publishers
sindhu
bourne
##keeper
arjuna
unconditional
truec
dunkirk
nosql
pwc
pineapp
exterior
occasionally
tectonic
disposal
aristotle
accredited
bribe
solicitor
enrolled
mockingbird
massacre
sausage
inflammation
inconvenience
940m
bluestacks
irrespective
ambitious
recessive
pockets
polytechnic
phlegm
kailash
anthony
minneapolis
5m
bhel
cn
cw
cng
dth
eager
fdr
hg
kr
lame
linger
pud
rash
roose
sb
txt
vps
vital
wes
wart
xps
yose
zur
zeros
##lpa
##eering
##uv
##zar
##dict
##post
##mble
##mod
##fits
##atonin
##rers
inductor
##oup
topp
##itives
forcing
tha
##acious
bez
##rock
##ental
strep
##ido
##amines
##igr
reef
shin
shir
##search
##ifr
quizz
quentin
##thal
enact
atms
##antir
nex
neko
##unds
sebi
##anging
aman
spinal
engaging
##loid
intest
adrian
clause
donating
leasing
leaking
##ource
##avir
##ffin
accuse
expats
muay
resent
blinking
perc
percy
pervert
thane
##ruck
relocate
perspect
braking
chefs
overly
polling
caf
##uala
##itsu
repay
freezes
transcend
schooling
coral
deputy
messaged
messiah
hardy
valency
winding
lasted
artistic
metrop
metadata
parade
psychologists
irn
freck
freecharge
anton
jeep
slap
ukrain
stepping
cyc
ballet
1877
informatica
geeta
landmark
accessed
torch
nuked
diaries
infinitely
spends
##joy
narrow
##pring
soundcloud
ibrahim
homogeneous
identified
##shit
merging
obsc
staffy
critically
##adeshi
magnus
resetting
acidity
sandeep
bothered
rented
palantir
definite
forgetting
limiting
predators
telecast
subsistence
sociological
locks
madhya
environments
melatonin
consumes
cpi
cpc
80s
loaded
rainbows
230
narcissism
cmd
70s
baggage
masala
1995
1992
35k
velvet
azure
nominal
pulls
scanned
tanning
rarest
##bourg
filtering
adaptation
complaints
ocw
pillows
weighing
discussions
thinning
cosmetics
spectacles
paradise
parametric
triggered
pipes
shaping
celest
aggreg
mesopot
1989
mongols
patriotic
authenticity
libertarians
lisbon
torto
unconscious
ayurvedically
appealing
printers
saini
saints
vascular
footing
marxism
##claim
##torrent
jaguar
ferrari
glowing
dataset
malls
woah
almonds
nihilism
revelation
stairs
resemble
kilograms
dissociative
technician
hitchhi
ethiopia
algeria
exponential
siberian
antisocial
kafka
lebanon
inaccurate
impotence
destructive
uefa
kitchener
croatia
reissue
mehta
monsoon
decrypt
compartment
overpopulation
zedong
interfere
infidelity
9gag
dishwasher
riemann
mediterranean
ericsson
jeenkart
yosemite
perspectives
mesopotam
09
2s
bind
cct
cbs
cma
cib
eul
fountain
gaut
ict
jk
josa
kay
kms
kelly
l2
ling
lend
m4
nro
npa
nbc
oy
oop
pom
poult
rains
tipping
wounds
xf
##lift
##iac
##cro
##tz
##rings
##6x
##ders
##hc
##hill
##bag
##buy
##hene
whales
##inals
inse
inbound
##ington
##arc
##alpur
##itz
##itars
##icons
##edict
canned
##ilers
##iligo
##isite
stole
stigma
reich
rept
##opters
prod
##agi
##umann
frat
quint
chad
chai
deleg
degrad
##usa
##thr
##ante
neumann
alf
alright
unm
seg
sep
semit
engin
##acts
impulse
prey
204
2024
byju
feyn
donated
grub
explicit
tao
blend
blond
blades
bookmarking
##ubility
persia
serge
bricks
chees
flowing
warangal
curry
##yped
programmed
solubility
playlists
infringe
sayings
genome
remake
transact
##onda
regim
purdue
payche
classics
depreciation
netbeans
travellers
##meal
endoc
hotter
provoking
handles
socialtrade
costumes
subtle
meaningless
guards
guitars
snacks
sleeper
confusing
defender
defensive
prosec
recovering
edgar
hymen
brocc
panasonic
supercharger
expectation
ipc
voltmeter
estonia
##lessness
refurb
landed
200k
midi
nukes
nationalities
packets
ilp
forgiveness
operative
lyf
sects
175
17th
presented
##law
clogged
ethn
##shank
labels
labeled
spaniel
illegalization
401
mailbox
academically
booster
puppet
crave
judging
translations
doubled
attendant
straighten
sensible
hires
legitim
pathological
conducting
scammed
ledger
kittens
bleached
vitiligo
bombings
unlocking
colonization
grandmother
murphy
lennon
romanian
garments
azad
procrastinate
jumped
targeted
rooster
interacts
##door
wirelessly
miniature
supposedly
rahman
khaki
ashram
buttocks
fundamentals
lipid
athletic
insecurities
panther
trophy
paulo
##burgh
bpd
superiority
assignments
invading
utilitarianism
kylo
##writers
ketch
nerves
nerdy
doubts
controversy
galile
allegations
mvp
macroeconomics
gambler
hugging
skew
capsule
carnatic
gyms
stamped
descriptions
dowry
isolation
kiit
conjunction
distinctive
wizards
shawshank
acetone
biryani
intervene
overturn
buzzfeed
bachchan
glycol
praise
toastmasters
cucumber
consolidated
jinping
gotham
wardrobes
allotted
tournament
aesthet
gyroscope
embarassing
futuristic
stylus
jolie
zapata
skydiving
##wheel
credentials
clingy
ramsay
##uccino
unlucky
punta
astrophysic
gymnastics
josaa
poultry
feynman
broccoli
0x
8000
a7
adi
bmc
bunch
cph
cinc
c21
djs
eigen
fy
fist
fits
faked
ged
hw
hans
jac
kor
kuala
pqwl
rj
ral
rival
sarkar
tsh
ucs
uchi
vce
wra
wides
yolk
##lav
##rint
##gun
##75
##kill
##kien
##wala
##dem
##meric
##reg
##erting
##erving
inel
##aru
##static
##estro
thug
thaw
thyroid
##isan
##isure
beards
##ooled
itching
##ecurity
haul
##sein
##agua
iftt
trape
##ulin
degr
amrit
acre
manmohan
scs
cliff
joey
leia
lexus
leeds
##ghis
upenn
grasp
##umpy
blisters
##ogne
perl
serum
underg
agoura
warp
monk
monica
emf
500rs
musically
skys
shen
tops
salts
systematically
securities
emphas
adds
transverse
prizes
rs500
propulsion
motto
biases
insulation
##arka
lego
##ropic
postscript
mindfulness
##bodies
retention
pains
##places
confuc
projector
projections
coul
parental
metre
dealers
brock
hourly
puns
supercomputer
litre
similarity
##insic
masturbations
pawn
reception
epit
fluores
verdict
emoticons
vacancies
bitdef
##2016
##hae
pursuit
##ophobia
radha
hussein
condem
excerc
squee
resultant
tampa
prevention
surviving
printf
misch
audible
limestone
declining
historic
seniors
hambur
collecting
conductivity
angelina
represents
rapist
raja
catchy
parker
cmu
recognise
liquidity
authoritarian
bernard
manipulation
nicely
expertise
dining
painlessly
ambul
polyam
explanations
conscience
etf
kobe
akbar
coward
woods
renowned
mortar
sucks
luxurious
honduras
cocker
64gb
disappears
paradigm
rigid
praying
margins
rebels
synthesis
shipped
horsepower
trailers
cousins
reforms
shadows
cerebr
lagging
hypnot
bosch
bosses
injuries
yuv
recycled
mammal
hypocritical
graff
##iptical
mcdonalds
bdsm
##rophy
relaxing
confessed
elliptical
cortana
skateboarding
follic
vivid
coincidences
hazard
unstop
tolkien
neuron
disconnected
acetate
dipole
repetitive
climax
fragr
condensed
dunge
transcripts
dashboard
##broken
involunt
cucumbers
kidnapped
homophobic
hvac
monothe
boycott
squirrels
nptel
woocommerce
stiffness
disclosure
antidepressants
douglas
tarantino
odyssey
cylindrical
matrimonial
deliberately
alkaline
anesthesia
abnormal
quadcopter
nietz
atsume
foursquare
slovenia
psoriasis
ecstasy
unanswered
zurich
irnss
cibil
uchiha
ifttt
trapez
bitdefender
3k
aux
bled
cil
csc
cengage
dach
distan
damp
eid
grief
hend
jd
jains
kw
kag
nj
nib
nau
nsh
oat
osi
pb
p2
pian
pomer
rnc
sard
sank
uda
vik
wow
wich
wished
yc
##oj
##ois
##dress
##pread
##mia
##yy
##xo
##bud
##46
inhab
##orters
##ingrad
##leys
##etown
##etrical
cans
##asi
##asant
##acl
behead
##oty
liable
liga
##igate
mosc
##seys
##urred
##chimp
combo
##imi
quarks
exemption
dean
deed
##thood
conced
unac
unions
unbel
computation
##unks
##weather
scabs
##orah
clowns
coy
coded
covet
##elles
allan
grinding
muk
tease
resell
resumes
bliss
##embourg
cologne
trumps
symph
##ruption
servant
##ouses
brink
offending
overh
needle
visually
flam
monarch
buss
calvin
##eee
##yps
backgrounds
skins
twil
crank
genghis
empath
corrid
regener
planck
planner
imf
propane
indigo
typed
deprec
travelled
subredd
swag
greedy
supportive
succes
##alai
##plished
codefor
availability
1938
professions
logistic
pointing
lathe
raees
jeopard
starve
slut
slides
litres
patches
constellations
cybers
connectivity
christie
micros
immers
suggests
168
1600
geo
lands
larg
mentions
negan
erg
approaching
170
presentations
gloves
ibiza
releases
wallace
mailchimp
osm
misleading
robber
undergraduates
antibodies
captions
knives
violating
hydrocar
pitched
##akhand
fairness
squares
locking
kva
rejecting
hamlet
separates
dressed
namib
francis
initi
miracles
charting
commentary
spiral
80k
bootloader
routers
validate
brahma
mythical
pushing
nicar
dawood
breastfeed
coders
frog
mangal
admob
accelerating
subtract
rhymes
wooden
converts
##rified
federalism
navi
aiming
kilometers
refunded
luxembourg
patented
bruise
unblocked
vertebr
sulfide
hoping
municip
injected
prayers
hornet
analogy
reformation
##risy
nursery
phosphorus
##account
vibrate
tasty
hypocrisy
servo
hemorrh
lumpur
refrigeration
threads
allocate
lgbtq
asteroids
##hydrate
offset
intimacy
eyelashes
ferrous
hurricanes
proportional
blurry
bansal
underest
sterling
balloons
flickr
bashar
anaerobic
toddler
involves
uncondition
resurrection
mistakenly
lizards
opencv
observable
greeting
terminology
reheat
doomed
mazda
gillian
lubric
accomplished
wrinkles
multimedia
reconcile
silliest
thursday
sanctuary
reassignment
surgeries
hypothyroidism
epilepsy
parabola
skeletal
truecaller
bezos
cctv
widespread
degrasse
unstoppable
pomeranian
codeforces
jeopardy
8k
9000
bcci
dia
derm
dough
ea
eject
eric
eiff
fs
hud
mills
nich
pt
p1
psc
r3
rhe
rage
rift
r15
s2
t7
ua
vista
wages
xx
yud
zak
##lastic
##cans
##rar
##uard
##zhou
##vc
##wife
##dar
##pers
##math
##hant
##xia
whine
isomers
##alis
##itations
##itting
##edo
fork
##illy
thres
##issible
##entious
stit
stir
struck
##idate
itr
##ecimal
hare
lima
##adecimal
##opedia
##lying
moj
##rials
proverbs
##chart
##ifa
quinn
maury
maestro
trin
dement
atp
nep
neander
##oshi
##osomes
notch
sof
##apest
amo
amish
pluck
scares
heisen
intrest
apprent
appreciation
adverbs
prequ
clitor
feud
lebr
leopard
leisure
aftermath
##velt
##avi
upa
arom
interrupt
##igniter
##achal
sapp
##developed
underwood
carter
carrot
monum
emilia
fungi
crate
salar
proficient
transp
cared
redesign
##mont
indiran
ideologies
##cock
biographies
deletion
lawrence
submission
##lings
whatsoever
animations
snails
retal
retake
apac
showrooms
macau
communal
fallacies
selfless
miche
codeigniter
morse
demonic
idf
mods
1920
1940
pointed
superstar
msg
patil
expectancy
barc
shortly
issuance
terra
greenland
##ovable
epics
miller
negatives
puff
packaged
replied
performs
mali
mayweather
budapest
nucleic
##namon
celebrating
##prises
enterprises
illusions
firearm
continued
occas
##likes
mailing
concious
misdem
nitk
palind
junction
benif
##zyme
eleven
madurai
demands
lowering
sweep
constitutes
exchanges
dropper
miracle
scratches
utorrent
sinx
bootable
vaginas
##installed
##ylene
tours
ultron
algorithmic
##obil
suffix
bangladeshi
tendency
1993
stuffs
daisy
ebiz
luckiest
sporting
ccie
threaten
dramatic
dramatically
jerseys
##ilingual
toothbrush
arnold
pumpkin
unexpl
bottlen
niit
exceptions
fantasize
navel
breeders
tanz
dialect
auditor
olig
subscribed
interpersonal
approxim
oci
participants
10kg
##built
cinemas
diagnose
cooled
ntu
hopkins
parameter
pige
moody
plugs
contestants
attachments
encouraged
physiotherapy
eradicating
benzo
benzene
establishment
swords
nested
propagate
idioms
cruelty
outdoors
sneezing
molestation
fossils
thunderbol
strictly
fulfilled
capsules
carnivores
warehous
hexadecimal
prestige
hazel
mughals
tollywood
intimidated
crafts
shifts
fulfilling
nurses
rvce
dividends
##akumari
skiing
subsidy
uranus
sarees
sympathy
windsor
symmetry
expiry
saiyan
mozart
hatchback
tenth
sulphuric
shareholder
plastering
cinnamon
proxim
impedance
vessels
manifest
biceps
hanks
hassle
cravings
autobiography
loopholes
voyager
1300d
rampant
bjt
endorsed
ringtone
seizure
affirmative
uterus
mauritius
dispatched
tragedy
vajiram
##blowing
fintech
jinnah
macromolecules
gourmet
lingerie
roosevelt
freckles
cph4
nietzsche
dachsh
overhyped
bussiness
ergonom
nicaragua
eiffel
threshold
heisenberg
lebron
indiranagar
misdemean
05
330
4d
aque
baz
dre
dart
dave
diana
ealing
fz
feces
flesh
gump
gland
hb
hq
hid
jp
jvm
kine
kang
kau
komb
kuru
nfc
pestic
rend
rtr
t2
tpp
tinn
vba
wl
##oa
##cart
##coms
##crap
##nical
##gio
##eys
##doc
##mel
##800
##fu
##fan
##inces
##ouch
toh
anand
##arus
canyon
sto
##ott
myri
hairl
##oped
##opus
##dio
##illation
mahe
exotic
exhibit
chash
trance
##uli
nebr
algae
so2
##aparte
acl
ache
manali
##ipel
adjac
##assic
clara
cof
marl
joel
leone
lemons
##iven
##gee
##ptive
##abha
artery
blat
outbur
##ogyn
perry
prague
##epam
##epad
offense
overc
markov
sme
underdeveloped
agi
agrees
flask
carls
cardiac
caliber
passcode
traject
belize
##ocracy
crows
infjs
infamous
roaming
##restrials
salsa
humble
questioned
schooler
##ondo
charco
ideo
gradually
##arkhand
menop
##scher
finishes
endings
signatures
centuries
valpar
riddles
##mania
postg
psd
elf
specify
succession
confuse
macos
lightweight
edges
##matism
punching
calculators
raid
antich
supern
superpow
heights
##ipper
legalizing
##ienced
oppressed
volley
##rators
greenhouse
reflex
refractive
texture
participle
organelles
165
marksheet
astral
blooded
negativity
competent
newslet
precision
divine
err
convolution
variant
viii
democrac
hostess
radial
pressing
fireworks
continues
electrician
archipel
hometown
sanctions
flywheel
observations
##criptions
ruining
concise
misogyn
laying
consultancies
enjoyed
banda
##exist
feeding
burden
icu
damn
damon
senators
rotor
honorable
conduction
hubs
ladder
nylon
blogspot
bleaching
snowboarding
mountaine
gravitons
containers
##obiles
arihant
executives
royalty
##topl
adopting
pretentious
comparisons
halluc
belonging
bullshit
ambition
villages
##araj
priorit
venue
cvs
fantasies
dilig
saras
tumor
29th
hungarian
nsg
inputs
##iatric
##ynchron
bacterial
physician
fabrics
wwiii
##akshi
formerly
boron
usernames
bonaparte
soros
linksys
triggers
yojana
abstraction
jihad
1990s
slabs
aquarius
pesit
fuzzy
nestle
diplomat
obligation
700d
genesis
hsbc
adjective
horizontally
scooters
disappointment
replica
incompet
transmitted
inertial
intervention
adventur
ripe
semiconductors
thumbn
commodities
neighbouring
publisher
incubator
gnwl
jabalpur
licensing
ingesting
incentive
punctuation
ajax
museum
ammeter
prosecuted
demonstrate
##vakia
scrolls
morphine
arbitrary
unnecessary
##lifting
indifferent
acronym
spreadsheet
wyoming
ingrown
aeroplane
lightsaber
trafficking
cavalier
nordic
dengue
caesar
sabotage
anorexia
spatial
illiterate
segregation
dropshipping
pineapple
celestial
paycheck
refurbished
excercise
mischiev
udaipur
coveted
corridor
largely
initiatives
unconditionally
mojave
proximity
dachshund
tinnitus
nebraska
carlsen
charcoal
democracies
##ynchronous
2n
2y
aus
ayn
bms
cus
dg
dign
dhabi
e3
ferm
fuse
gcc
gaw
gyps
het
ieee
j1
jess
jadav
kp
kol
kra
kod
kub
kicks
kelp
kakash
lm
lent
lts
lily
mits
mason
m50
nix
naw
oj
ooty
pst
pik
tand
tdr
uw
wore
zind
zyn
##candy
##rack
##aji
##nas
##nip
##gree
##guru
##64
##69
##uz
##uania
##kad
##vita
##das
##pri
##mith
##maker
##hose
##hrs
##yas
##atus
##hee
##reet
theology
dober
anarchy
##aring
##arak
##aled
##step
##ether
canker
##acon
##acet
##root
##roding
staged
##iderman
##amo
##amel
liars
##olith
reop
reign
##ophen
##utra
##illow
probi
proadvisor
##agu
##change
comet
exting
choo
tract
##ulations
asynchronous
##ussian
##istem
##oslav
unrest
abrams
sew
##anga
sph
spiderman
mans
adequ
preferences
byte
timings
coco
coorg
##iley
##abolic
##ffrey
arct
expedia
##echar
blink
bladder
outie
##oglob
perisc
poses
sau
saul
sauna
discs
overre
consens
##dew
incons
flax
flops
carne
capp
##cessful
differentiates
crap
thrice
107
downfall
crem
remix
correction
regulate
badge
##neous
grader
deterior
provident
provinces
##iolet
cattle
##ribly
webin
deletes
childish
problematic
mindblowing
elvis
favorites
digging
restful
penins
dreamed
psyched
mildew
modest
writings
characteristic
exploring
100m
locally
massages
##ports
shareit
30th
ipm
mixer
1835
reactors
checkmate
receip
organically
communicating
multicult
50mm
mentors
midwest
256
waiver
##engine
keyboards
specialized
dividing
erdog
approached
automobiles
silencer
13000
collateral
excise
bulge
mercy
ministerial
perfumes
fitting
salesman
ecr
##undice
statuses
trustable
bandhan
undergraduation
expressed
pronoun
captcha
##agonist
gifs
commercially
peacefully
melody
rotten
titration
detectors
franca
##uminous
nyquil
commentator
snowboard
bombed
unfit
ranji
possable
dispers
parkinson
70k
ariana
kgp
substituted
jaundice
1991
1999
punjabis
administrative
furnace
polygon
cognition
imagery
puller
neutrino
bangladeshis
spoiled
confidently
mirroring
##anyahu
solidworks
mouthwash
sirius
renov
monetization
nsf
continuum
ordin
cockpit
frustrations
diabetics
shooter
taiwanese
beyon
hawaiian
discounted
sedan
reboot
bihari
overdraft
overlap
##guards
compensate
acquisitions
cadet
cooperative
trekking
kettle
mht
modification
zombies
kuan
##metal
negotiation
apocaly
polymers
physique
geometric
pearson
tissues
liverpool
attorneys
abrahamic
##ranos
farthest
lithuania
lobby
arrangement
allocation
igneous
lsat
lecturer
insults
bradley
lunar
exhausted
multiplied
corresponding
vizag
lactic
cyclones
tampons
alleles
codechef
embrassing
graphene
equilateral
dolphin
counselor
incubators
bookmarks
chaos
girly
bravia
jenkins
persistent
gesture
inverted
yugoslav
bureauc
unrelated
sneakers
hispanic
kelvin
crystals
aboriginals
survivor
cyanogenmod
jharkhand
shudras
##fmich
laksh
coriolis
jigs
arsenal
lynda
mesopotamia
infringement
galileo
astrophysicist
inelastic
skyscrap
fluorescent
cerebral
moscow
cybersecurity
dementia
salaried
tanzania
aqueous
kaufmich
mahendra
antichrist
archipelago
adventurous
mischievous
jadavpur
kelpie
kakashi
zynga
extingu
psychedel
multicultural
1d
410
550
bould
bast
bumble
cmat
cnc
dz
dit
dull
ef
eau
faking
gib
hopes
ix
iqu
icc
lcm
mf
mdi
msi
mama
mpsc
nons
noot
pk
rb
rally
rpg
raksha
rhae
s0
sant
sway
sorts
tors
tiff
tifr
zillow
##oard
##lb
##liness
##iq
##sol
##gear
##zilla
##kows
##dish
##metic
##ht
##hash
##hares
##fet
theresa
inference
inhibit
doe
anom
##aram
##arium
##aline
##itas
##itra
##omics
##stroke
##lean
##leen
##etah
##rox
##rost
stoch
##otonin
bestfriend
##verified
refe
sho
shay
shib
##oprop
##urbs
orgy
##rift
prohibit
##agen
gett
quib
exor
exothermic
deut
congest
ender
enzyme
##istent
##aret
##essential
##osit
notices
unpaid
##ectomy
##apses
pea
##angles
amc
spong
spss
spying
##endra
placing
intrus
intrad
##alla
prett
byz
timer
coating
coax
marin
##ilever
taarak
blair
recieved
serotonin
brune
disqual
cheetah
bancs
##photo
noon
needles
undercover
calgary
passage
realism
schroding
mats
reporter
decim
socrates
addictions
strap
straps
regina
##monary
ima
basil
netanyahu
dribb
sings
bathe
batter
##roportion
handmade
hardness
hardcore
costing
pops
downloader
swach
requisites
generals
runway
specification
specified
godel
entities
##anche
apj
opener
kindest
macar
macros
cape
educate
stockhol
eukaryotes
hygi
hygien
modular
opting
1922
freak
jeb
pyg
sloth
literal
lotus
credited
barg
barron
bariatric
shortage
debited
storyline
balancing
microsc
refraction
sunrise
50s
turmeric
fluids
leftist
leftover
coping
creators
differs
summers
richmond
##kshet
erased
doctrine
horrifying
maldi
malta
##mbps
masterb
lyn
conditional
pressed
cs6
presenting
lawsuit
qualifies
materialistic
bhk
fundra
denim
doctorate
fibr
innoc
tamils
gasket
hallel
draws
sandberg
babylon
tenant
##iji
palace
burgl
caption
predicting
historians
madly
melted
jesse
##daq
truthful
halfway
airliners
closure
##asmine
shallow
utopia
obsessing
booty
stannis
##zerian
possessed
bowls
##oelectric
1994
sheryl
formatting
jumps
airbender
jimi
repeater
derog
45th
spoj
confidential
promotions
criticized
exporting
ahmad
felony
assumed
pinscher
lamps
eslands
cott
laughter
shoots
stalk
alexand
bahubali
##white
pokeco
voluntary
pandey
gelatin
uttarakhand
ketogenic
nanode
magnetism
tactic
rulers
numerous
counsell
lisp
paradoxes
defendant
adjusted
electrostatic
insightful
##innati
778
yew
blessing
surrounded
nightmare
bunny
tibetan
acknowledged
harmonic
nasdaq
nhl
1952
ddos
confronted
collaborate
collaboration
prosperous
superstitions
adulthood
skullcandy
khalifa
maltese
hypertension
demolished
shareholders
comparatively
culinary
spaceships
dwarka
empirical
voip
gooseb
empowerment
exclusively
stuffy
chauhan
monogamous
tahoe
dexter
cervical
trousers
agarwal
rallies
tuxedo
workshop
ukrainian
quintessential
legitimacy
cincinnati
ralph
hendrix
osmosis
approximation
thunderbolt
kurukshet
myriad
adjacent
postgres
superpowers
volleyball
receipts
erdogan
beyonce
apocalyptic
yugoslavia
jigsaw
stochastic
intraday
brunei
bancshares
stockholm
hygiene
hallelu
kurukshetra
3t
4i
4chan
aries
bism
bps
cern
cherry
dir
eq
eleg
fba
gaps
hats
jung
jhun
kon
kot
krav
kurt
kavir
luth
mell
mates
nb
nath
ppp
rw
rx
rim
rechar
sly
tally
ues
uid
upp
yen
zener
£1
##cence
##cuff
##rowing
##aul
##aways
##aiso
##nie
##gel
##gap
##gles
##zene
##zhen
##wo
##pods
##hound
##yte
##food
##fiction
##2d
##jhun
##31
##atan
##hei
induced
inmates
dod
tog
token
##aro
##omet
##levant
andaman
##acchar
##isi
stunning
##oots
##elle
##idi
mycro
hap
##irub
shade
moh
moan
proclaim
##agascar
##ifics
##imeters
ifsc
worries
##thi
conception
##oodle
une
unverified
##ievable
##apat
abusing
seoul
amg
ambi
##renees
spleen
##ainable
plots
scrib
##loved
##alli
timber
clues
clicks
coined
cochin
marble
jock
joffrey
donuts
allig
##pto
grape
grains
residing
thinkpad
bookings
earrings
percept
reck
poet
##acharya
prith
##ultimate
reluct
saver
disgu
markup
##dexo
commits
commuting
acted
policing
underweight
undervalued
underlying
bohem
flirts
carries
carson
monomers
calab
##leteness
1000₹
seeker
rohit
##orne
genital
regiment
aval
minim
minus
ours
inserting
drank
surreal
surplus
advil
handcuff
cams
catal
somed
listings
runners
runny
tales
distortion
##bok
##boys
##brow
bodyweight
gotra
methanol
removable
defect
penultimate
communists
para
paraphr
purported
natal
punk
latino
rais
pyrenees
determining
patrol
similarly
barrist
305
debating
statues
baltim
##cloth
##reading
percentages
snapchats
##locker
organised
##akesh
epf
200ah
linkin
creatine
brandy
diffrence
sums
keynes
farms
packed
glor
explainer
illog
##hani
motivating
operates
malia
buds
##opathic
towel
hurry
bhp
tallest
ramdev
##rapati
criter
slowing
404
revolving
osx
chatbot
trusting
dyed
botany
dropout
contribut
expressing
jackets
subsur
squarespace
madagascar
rotates
virgins
tariff
encaps
kidneys
droppers
##entionally
lengthy
pulp
utens
sinha
802
8085
destroyer
ranaut
disproportion
transformed
prisoner
parked
recognised
##zzle
mrp
widow
audiobooks
pretending
casio
aircrafts
pizzas
amphet
tagline
jamia
lacks
suprem
habitat
neutrinos
juan
maratha
45000
crispr
breeding
uiuc
converters
b2c
commando
advancement
sticky
shocked
domesticated
ashton
interpre
lamo
laminate
chloro
continuity
55mm
suspend
polarized
chiang
picnic
smiley
phenotype
vertices
pleasures
foxes
investigate
sparkling
injections
piracy
vapour
catholicism
oscars
moore
interstate
volunteering
hyperl
scandinavia
reformed
nervousness
complications
compensated
schizophrenic
ragging
ribs
ftp
zeppel
slovakia
blanket
torture
metallica
reproductive
injured
vaio
galvan
helicopters
vaccines
bilzerian
censorship
kanhang
conclude
sneezes
humorous
obligated
##ranet
##orphism
cortis
pancake
agnostics
stimulating
incompleteness
irrelevant
catalyst
expatri
1957
geeky
collabor
schedules
alkanes
bourbon
cheeks
##keeping
sterile
anticipate
adulter
recursive
kbps
aurora
ductile
unintentionally
overwhelmed
revelations
rangers
museums
typhoons
imperative
northeastern
unreliable
treasury
teleportation
abundant
nurture
inquir
unavailable
rinse
detonated
dehydration
1868
1857
kosher
cascadia
blazer
urea
bracket
traumatic
##myshow
reconstruction
peripheral
crowdsour
euler
alfred
enginner
sergey
shenzhen
epithel
trapezoid
oatmeal
unbelievable
misdemeanor
outbursts
valparaiso
nixon
zindagi
doberman
##oglobin
periscope
carnegie
cremated
iquique
rhaegar
schrodinger
maldives
derogatory
goosebumps
hallelujah
jhunjhun
luthor
mycroft
baltimore
illogical
kanhangad
5d
530
5kg
aes
aksh
bim
bata
bisc
c3
cud
ctr
cudd
dens
dank
dai
dams
dicks
epl
fledged
glock
grie
hort
iiest
jpg
k4
kj
kama
kaw
lapse
mj
mish
mik
m20
nak
nata
ool
oust
pnb
ror
rut
rital
rowing
tt
tones
tied
tina
vhd
wre
wag
wps
zs
z5
##oque
##tent
##aar
##gm
##gom
##gil
##gram
##girl
##67
##woo
##wad
##payer
##89
##bath
##jack
##34
##370
##atism
##heets
whipping
##inence
##anne
inbuilt
##orcing
##enar
##enne
dood
##alites
##itter
##itated
##icii
##sten
##leans
##ilitary
tho
threw
stood
stap
##elt
##otation
myspace
limer
##olves
shill
##opers
orleans
##illery
##agment
##chair
exert
exits
traced
asha
dept
congo
enlist
##istat
notepad
unjust
compliance
soak
sohei
##unn
seam
##ained
aftr
manning
##love
intrig
imprison
adhes
2040
2025
##anshan
cobal
coexist
##iaf
marries
marcus
jodh
##avn
arre
arith
arica
grateful
expel
temer
teaches
##odara
posses
daycare
prc
prag
relates
relational
dislik
personification
##phil
smiling
underage
bohr
flix
monaco
##alds
hernia
realised
helix
skit
skim
laure
solom
mediation
cringe
repell
1099
humil
remakes
##uters
transm
avi
avicii
redund
img
rupay
insu
insol
airways
##ietal
homecoming
catnip
##iously
subwoo
comebacks
swast
requiring
elie
##lington
callao
sleeps
penang
edited
potent
chemist
ceasing
degener
demobil
optic
taxpayer
irc
latte
##max
antonym
maga
talkative
##ymor
##class
gateways
##ibly
urls
paas
versatile
1687
epistem
bloods
colds
nationals
farsi
islamabad
puk
glas
pursued
sita
northwest
mayans
sincere
sectional
1787
1751
##genic
bhak
discern
ballistic
ethically
##shire
conversational
expanded
fires
##ombus
boolean
misuse
##beat
##express
advertisers
campuses
jacks
##presso
madara
melan
waiter
cpus
encod
benefitted
campaigning
pulmonary
pdfs
utter
mi4
22nd
##odesk
rainy
touring
equivalents
grounding
pgpm
scrapped
dominion
dominating
1998
oxymor
frogs
neurop
##market
severus
boosting
priorities
outputs
rhombus
faithless
nodejs
28th
dynamically
flavored
divergent
sperms
vadodara
kalyan
cosmos
315
regulatory
bhagv
eliminating
toughness
stalker
montgom
classifieds
tongues
rectify
algebraic
paramilitary
protesting
chromium
urbanization
hoaxes
victorious
electromagnet
mesra
mh370
pedal
gigs
mmr
retaining
correlate
flexibility
physiological
flawed
1945
sharpen
##ocentric
aleve
binge
satanic
bilateral
bomber
dosage
dosha
molested
qaeda
trashy
diodes
exceptionally
libertarianism
chambers
evaporate
777
isolate
highlighting
highlighted
fiancee
conjuring
prerequisite
hexane
tetra
emitted
segmentation
sketchup
reunite
nasal
allev
instructor
miserably
wormhole
colonialism
indirectly
pharmacist
neurologist
corpus
compromised
##ggles
robinhood
aurang
tlc
toddlers
confederate
wigs
xyz
kilogram
mensa
priests
bracelet
pantyhose
asoiaf
downtown
theorized
1896
ounces
contrace
residual
kutcher
metamorphic
lankan
avenue
jamshed
shameless
a6000
nespresso
reliability
rugby
verna
scrambled
margaret
aztecs
remarkable
1361
enacted
antonio
reptiles
##through
ambulance
distances
concede
succesful
municipal
clitoris
sapphire
tohoku
marlboro
menopause
mountaineering
chooses
peninsula
boulder
deutsche
byzantine
decimals
pokecoins
postgresql
someday
zeppelin
epithelial
ritalin
cobalt
jodhpur
temerity
disliked
##expressions
montgomery
3c
3a
5200
6p
bins
bunk
c1
cx
das
dji
ditch
eigh
fand
gats
hf
jira
kart
kyle
kkk
mx
mds
nps
nax
nris
ouster
pion
pall
rak
ruth
sass
ssh
sought
sagar
sigm
tc
vt
v5
vans
vint
vines
viva
vlog
ws
wavy
xb
xxx
yards
zolo
zeta
₹25
##oad
##cia
##cub
##cats
##rons
##got
##kit
##wale
##wondo
##data
##pile
##plic
##hist
##yer
##year
##fir
##fight
##free
##finger
##fivia
##bab
##bek
##365
##atis
##heid
##heart
##hend
##anof
inductive
##oric
isil
isnt
##enced
anil
##itime
##sticks
androm
##estruct
##acom
##acus
##isse
sts
stead
##eles
##idad
##otte
##ayed
##olla
rejo
##adoes
shing
##seed
##river
##ichi
indias
framed
mak
chia
defer
concess
converse
enrich
athens
nott
unle
undi
univ
peach
##itya
##ands
##andra
plumb
afro
intps
impre
appsc
aden
admir
##asso
##inkle
clue
##ravel
maritime
jog
leop
##ivan
newt
mug
taek
bookmyshow
outbreak
earbud
butler
##sians
##athkal
dislikes
overst
overtime
##deep
incap
preprocess
agil
visibility
carcin
carrots
heroku
cali
phonegap
sexism
partially
twel
10m
102
1060
similes
##ledging
intex
salvation
genitals
securing
primer
reggio
earths
purge
imitation
deported
##hik
drip
singles
surathkal
designated
cater
centaur
somatra
himachal
harming
termed
animator
snoop
autodesk
distros
distillation
gmo
##ancers
bodyguards
apert
extending
kinda
artif
artillery
confusion
macy
deficiency
capill
codeine
edc
civilisation
##matics
darkest
##mitive
logan
typeface
msm
stealth
pornographic
cytopl
triangles
balk
directs
corrected
1822
practising
informative
philips
##chatca
smokes
lowe
checker
1611
meetups
romney
copa
prototyp
addressing
pastry
divis
bitten
##elson
explaining
convertible
gays
crips
babu
sitcoms
conviction
malle
mayer
nucleot
olympians
gamers
collars
condo
excite
1755
1746
archived
casey
210
medications
concor
stationed
hpcl
rocky
nitro
glassboro
burq
burgers
predomin
mutations
harvesting
hikes
demanded
titans
sweats
rubbing
localized
##ecuted
astrological
hanged
cloudy
displaying
tickle
brownies
noticeable
tradeoffs
delivering
representing
unfor
premise
widget
authorities
manipulated
pushover
garment
samurai
casinos
indonesians
axi
angular2
octane
chairmanship
instantaneous
jerusal
nominations
accelerated
nepali
oriental
polluted
inspite
##people
sticking
composers
adaptive
cocktail
mamc
assassinate
evaluated
##nesia
vertex
poisoned
reflected
lipstick
relativism
investigating
chaplin
panthers
trojan
mlm
interpreted
aspen
cello
fucking
ovens
##rogram
tackling
utilized
messe
jawline
privileged
henna
sundays
modifications
absorption
drafted
germs
intellectuals
exploding
hunters
nerf
retained
negotiating
alphabets
fleet
waxing
unconstit
intersection
mushroom
aspergers
kuril
pentagon
incorporated
clarity
rustom
antibiotic
relaxed
igc
knocking
insulting
incorrectly
shelf
curricular
jurassic
navigate
kamchatca
intimid
awaited
tornadoes
bucks
cyclone
ernst
closeted
isotope
icelandic
rlgn
quotient
complementary
instincts
twisted
neighboring
marcos
distributors
metallurgical
rothschilds
aligned
fidelity
bravest
extermin
freemason
golang
lizard
reappear
overheating
frizzy
hints
sagitt
andreanof
hispanics
nurturing
##pppppppp
discarded
logarithms
amitabh
monologues
vailfivia
nausea
deflection
supervised
nigerian
ganesh
mourinho
bridesma
dystrophy
tirupati
evangelical
vallenar
depletion
hgtv
toppings
transcendental
hitchhiker
insead
segments
semitic
regimen
401k
c2180
amrita
p2p
bottleneck
trajectory
##acetam
exorc
##apatnam
vhdl
shillong
arithmetic
jamshedpur
eighth
gatsby
zoloft
andromeda
plumbing
taekwondo
jerusalem
9mm
aish
aph
bora
bha
cind
dive
dane
fuss
gbs
grop
gaur
goss
ht
hone
kre
kios
lone
lama
lanes
mating
mdr
nr
nv
ncl
nacl
oops
pum
pals
papp
pka
rasht
rakesh
ses
soo
sash
sene
sane
tus
v8
vich
vang
vite
vatic
vfx
wim
wav
xt
x2
yan
yureka
zoro
##odies
##late
##su
##aic
##aus
##nut
##66
##eres
##zone
##wi
##wap
##wik
##mens
##hp
##human
##block
##3x
##hex
##hening
whining
##rex
##inness
##esk
##anus
inhib
##oufl
##alini
##omla
##icl
##ett
##eterm
cance
##asers
##achen
stds
itis
shuff
##illing
##rique
proverb
##ppy
##fee
##umn
##umat
quants
exagger
chik
trun
debr
conform
atkins
##osely
uniqu
unnatural
unequ
uninstalled
sodexo
##apad
abduct
aboard
spies
spelled
sparse
spouses
plent
##web
acnes
mane
manus
scab
scoop
##loc
heeler
intra
intensely
adore
coel
##ishable
##iavel
maria
joomla
armature
grilled
intermit
resale
reserv
##odha
colin
outline
perse
presents
preserved
##igned
##uph
##ubishi
##0001
pras
persecuted
saavn
brute
##ermind
wats
incarnation
smoo
smog
invitations
pollock
evac
boats
emissions
500₹
passout
##eeee
belarus
universally
solute
infront
thrash
matte
rost
108
opc
oprah
socio
vein
carefully
primitive
payed
##months
classifier
softener
indestruct
##utional
##coon
delusion
insulin
netaji
drows
##appa
finances
camoufl
mastermind
postdoc
swelling
terminated
terminator
eaters
##ahan
psk
eli
cultivate
specter
guer
distort
##bias
##brain
mica
parib
eucl
idm
modes
hourglass
1900
freud
rao
machiavel
superc
starters
pornhub
legalization
oppo
303
debilit
standpoint
anglo
##ovies
brittle
communicative
avoidant
epide
brainwash
faq
proto
farid
specialisation
##atted
analyzing
forgiven
##ophysics
objectively
convent
automata
silic
deadliest
##ritious
tablecloth
resulted
dolls
homic
sanitary
##osperm
littlefinger
labia
spaniards
revamp
fitted
concur
##oxid
touchscreen
harassing
powdered
telep
##caa
benedict
psychopathy
mutton
pathology
devops
brotherhood
impressed
detecting
sixteen
flipboard
rapists
conditioners
mi5
obsessive
aiats
rajiv
rajput
rajnik
raining
lieuten
capacit
capacitive
fingern
mcq
wealthiest
##obar
leningrad
dominican
annoys
nutritious
1996
advantageous
scarlet
oxal
sequences
embeded
axial
unsuc
ambig
airbags
repairing
tagalog
mentioning
arriving
tyler
nominate
consciously
rhin
migrating
##logram
unbl
sickle
##rochem
advancements
pleasing
999
renault
gibr
olx
declares
norman
backups
wheelchair
divergence
chlorophy
discussing
sharingan
kinect
folding
##ersonic
turbines
31st
ntpc
reflective
baha
bonuses
tomorrowland
##rasound
insecurity
sustainability
collapsing
farmville
bpcl
durg
equipments
pandits
lingua
analogous
ganguly
lumosity
dmrc
fascist
fascinated
##iraj
aggression
severely
biden
nerds
sketches
irritate
tactical
##panz
flew
rods
eradicated
1948
galactic
phobias
cumulative
comedians
sprite
supplementary
metabolic
attribute
intuitively
simpsons
alphabetical
vendetta
protocols
palestinians
imovie
tubal
recreation
bronx
deductible
offspring
emitter
watermark
disconnecting
eyelid
wanders
midnightexpressions
cfd
intervals
climbed
##erella
trimmer
roasted
pharmacology
lambda
bookmarked
insanely
screaming
hypocrites
compromise
symmetrical
chalk
microprocessors
laxatives
chandragu
primaries
rhetoric
pedophile
gratitude
energies
bodnick
imperfect
boycotting
vessel
escalate
##talk
desserts
intrinsic
unavailability
keratosis
chromatography
inhale
receptors
##laimed
quartz
parachutes
rapture
archery
guardian
##codone
chimpanz
tunisia
accusations
homeschooling
ihm
exempl
advocates
patronus
panchay
diagnostic
cafes
transactional
ethnically
yuvraj
robbery
breastfeeding
underestim
retaliate
conciousness
pesticides
diligence
incompetent
fermi
mitsubishi
shibpur
prithv
bohemian
barrister
chloroform
akshay
flixcart
insufficient
pioneer
vintage
twelve
artifacts
cytoplasm
unforget
sagittarius
cinderella
senegal
vatican
canceled
intermittent
indestructible
lieutenant
chlorophyll
03
71
960
arav
bcc
brian
bouncing
c4
d2
drew
e2
eun
gds
ghee
hm
iem
jing
jnt
jasmine
kant
ksh
lec
lana
loun
mund
mtv
m55
nz
noses
naik
nanshan
ncaa
otc
ought
pilar
qtp
runt
rutter
sque
uz
ubi
v6
v2
voot
wist
wiring
yalu
zy
##oam
##llo
##cult
##trip
##rage
##sky
##gger
##gings
##gency
##72
##kas
##kel
##will
##warya
##pee
##magic
##hoots
##yard
##ympt
##yrian
##fell
##fuck
##fined
##finder
##bug
##atories
whiter
##eract
ingress
##owered
isca
doj
dome
doyle
tok
topt
##omat
##omorph
##iculate
##ethe
##eding
andri
##esty
thirty
onc
beck
beads
stitch
##idav
##idium
itc
lien
ligation
reuters
shunt
weas
##chooled
##ifi
quik
quasi
exes
exile
##ulu
meats
asympt
enrique
alky
sodas
abhi
##indle
seated
amber
spoo
##ortable
aca
manages
phi
phds
scuba
##ipus
intentional
##aceous
adduce
adversely
2050
##ideos
##ansham
cliche
##raz
leaks
##ivable
##ivorous
##avansham
##abi
##abe
args
arcs
interm
interchange
resche
##odino
##izable
##irer
presum
##achu
trumpet
prat
conting
brin
brics
overpro
markers
incite
incidence
noc
improper
agraw
agatha
flames
floss
##reatable
facepal
monsters
emc
friendliest
##ensored
backpage
fung
attitudes
laziest
lookup
meds
schwar
infographics
matapan
maternal
reprogram
1070
##cycl
questioner
creme
transpl
rs1
redis
mathrm
highbrow
testicles
testimony
minoxid
propeller
soften
ideapad
##eryl
delink
detached
electrone
placebo
##ropics
homeost
homeopathic
handsh
ridic
riders
suburbs
postings
##aphrod
ps2
snort
windsh
153
##aiya
apathy
opengl
memo
confortable
defects
defrost
parano
edits
dealt
dreamt
todays
demotivated
breakthrough
irrig
austen
raft
antit
superstit
pyth
locke
cyt
connects
deathly
armour
##ymotion
nightlife
microorgan
1812
##ibank
births
angi
##erva
prevail
geese
epigen
deserted
##balls
cancelling
precip
specialize
packing
glut
performer
missp
variations
##cson
moderator
paperwork
14days
striking
striker
meru
magnum
concave
supersonic
##inoor
##walk
undergrads
kashmiris
burma
burrit
##ucher
##zeb
untreatable
predest
pitchers
sharia
creatively
stupidity
accidental
##afa
odour
espn
crossover
duet
dubs
ipads
responds
drying
strategist
enfp
cutoffs
delivers
virtualization
radiohead
##apsody
fashionable
artificially
executing
emotionless
garmin
bowed
bowie
remained
35000
mandate
gbp
factorization
octave
sqlite
nominees
syllable
rhapsody
45k
resigning
##trans
optimized
akkad
convergence
friendships
sticker
cdn
cdot
rename
exported
sarah
fetishes
##rishnan
complaining
bearings
participated
nicki
cinemat
lauren
tucson
smilevo
borodino
inefficient
sabbath
schizoid
tedx
struggles
pixels
rigorous
beggin
sacred
bbm
homeschooled
inserted
mosquitos
protestants
leaning
biharis
pandavas
kohinoor
hunts
veda
vedanta
shootings
victorian
preliminary
laboratories
uncensored
anchors
conquest
tolerant
fuj
tsa
tangential
portrayal
storms
conjunct
replicate
incomplete
regrowth
hermaphrod
aeronautics
##ourable
fools
rewarding
reunion
harmony
prefers
svm
crusher
crushes
nh3
overtake
floods
prolifer
glycer
quotations
vidyal
deceased
pendulum
sgd
vulnerability
##piece
eyebrow
couchs
oscillation
crawler
xampp
soundtracks
kanyakumari
incentives
confederation
convenience
typhoon
##uddin
demolition
gestures
sangh
filmmaker
categorize
breeze
m604
zerodha
wardrobe
antidepressant
kendrick
bicep
bryant
heathrow
lamarck
vipass
substantial
monologue
bayesian
chanting
neglected
pessimistic
slavic
stewart
hackathons
retweets
paralymp
tesseract
##otrophs
judgmental
phillips
dildo
appraisal
tsunami
ketchup
hamburger
coyote
rheumat
zakir
maurya
trinidad
warehousing
convolutional
hubspot
pikachu
##olithic
arctic
overreact
ordinance
nootropics
alexandria
nanodegree
elegant
##accharides
uneven
ambien
calabria
enginnering
bataan
solomon
insoluble
demobilise
impregn
agilent
aperture
unconstitutional
aishwarya
sashimi
debris
plenty
reservoir
rostov
##osperms
prithviraj
unforgettable
pilaris
rutterdam
andriod
agrawal
facepalm
minoxidil
windshield
paranoia
irrigation
superstitious
rheumatoid
1l
440
5l
5cm
535
6100
786
aik
bn
boun
bund
c5
cain
cures
cries
cena
droid
ducks
fda
ggs
gull
gosp
kink
kale
lca
mace
mash
nand
ngin
pity
pact
ppt
ptr
poodle
qw
qq
slic
tres
tach
tung
u2
wels
waze
zim
zaw
का
₹3
₹10
##oxy
##lie
##cash
##rub
##nish
##nagar
##gart
##gov
##78
##uer
##uating
##var
##vals
##vale
##wes
##dp
##design
##mable
##mbled
##mhz
##hard
##hog
##host
##yms
##fund
##xi
##bid
##but
##bons
##bots
##33
##atri
##atists
##atrix
##inx
##anal
##erated
ing
isosc
doses
dooms
docom
anabolic
##arica
##itic
##icent
##icol
##icism
##stra
##ilian
##ilitation
thy
##entive
##aments
iter
##ayas
##ecd
livest
##olitan
##ige
reimb
mobi
##dial
withstand
proactive
##umbs
chou
chir
chhat
##ersky
conor
neistat
alp
alice
uncont
willpower
suf
##unia
seism
##rend
sprain
spiel
loco
##week
acura
manch
scans
##akami
heir
adverb
wasp
wasps
cloning
cole
marley
maroon
joanna
##quar
##abl
##abatic
uphold
grinder
interfer
tefl
teaser
resin
blizz
##emon
##oga
##ogat
##ogram
##ogether
pertain
recount
##uperv
syner
relie
serbs
sae
saff
sahib
saarc
watery
##phase
commuter
commutes
smug
undergoing
flac
takeoff
warhol
mons
500gb
##nings
trainees
shek
##ocs
##ocus
justices
reporters
reposit
ops
opium
downhill
salons
humming
remorse
transitions
prim
purity
charm
chargers
payable
payday
##bait
buis
testicle
minaj
minerva
airpods
neteller
techno
leggings
surrog
endow
hoist
teller
histrion
subhash
postmates
comey
swings
greed
greene
humane
elix
speculation
guinness
autumn
##perienced
entp
entail
##tening
##so4
127
retract
painkill
beneath
##othermal
capf
capitan
germanic
parcel
##ikanth
##retion
chemically
idp
ides
psychometric
latvia
headmaster
anthe
jean
purposefully
explored
starring
slapped
locality
litmus
##uckle
housewife
barcl
legalize
legalised
debut
intros
##ibu
reactants
reactjs
112
1100
sideways
immense
driveway
##idson
southwest
awd
vacant
pubs
hinder
cripp
##ophiles
spotted
babys
##balanced
varies
malcol
macbooks
silica
paperwhite
celebrations
saves
shotgun
hypo
globes
occured
destined
##affes
trem
trello
ramak
ramayan
innie
slows
revived
concussion
piles
hp0
vacuole
##olds
##unders
hydrated
##ickshaw
antique
symbolic
definitions
burj
translating
knox
uganda
johns
analytic
assisted
apartheid
arranging
llm
cabbage
##olecular
federation
cpap
crossfit
##yalgia
adsl
acquaint
miranda
kitty
lengths
uti
astronomers
dispens
ultr
suscept
suspected
mci
mcgre
murray
murakami
bagel
baghd
suffers
applies
consequence
pushups
resistors
baar
shutting
shuttles
sequential
hallows
spiritually
yellowstone
mango
unsuperv
taboos
grammarly
lesnar
##liner
janet
magicians
etfs
kaaba
tywin
villarica
congressional
hobbes
sightings
adviser
cuboid
digitally
khmer
deactivating
##aminated
unexpectedly
believer
flavour
dilwale
infectious
stammer
monetized
transported
##dynam
photoshopped
divert
##opsy
thankful
davidson
rumors
rummy
polarity
norton
gtbit
indexing
formalities
cosmology
cantilever
fundamentally
shivaay
319
enhancement
argumentative
##points
##write
arraylist
chipset
constructor
addicts
miley
troph
fortress
influencers
ovarian
amdocs
##falls
julius
owls
iaas
binom
kyc
derivations
cadre
cadbury
modifying
absorbs
drafts
gigab
mongolian
sweaty
shriram
knights
forests
bosnia
draining
drained
aquarium
gorge
districts
encounters
ninet
permissible
concealed
uncommon
servants
behavioural
disturbed
diplomacy
refrigerate
downvoted
tibco
revolver
volcanic
tobago
knocked
carnot
charlotte
brisket
conveyor
sailbo
##forum
wavelengths
bundle
tetanus
veterinary
fractional
settlers
##altar
geeks
tonsil
8969
klout
proprietary
umass
rfid
reincarn
crucified
eruptive
undefined
subliminal
pvc
witchcraft
janeiro
observers
adultery
probationary
alignment
compromising
128gb
unreason
hindustani
pedophilia
gratuity
energized
militants
filmmaking
paleo
breezes
tectonics
gothic
bakery
implantation
ceasefire
vandalism
carlos
ounce
phonetic
tulips
##worms
hackathon
retweet
crunchy
merchandise
vouchers
##mandu
constraints
ganja
multivitamin
infertility
discourage
parallelogram
dawkins
worshipped
ipv6
murderer
tortoise
prodig
adiabatic
jacob
squeeze
dungeons
kaggle
twilight
subreddits
hudson
yudkows
michelin
terraform
chashmah
newsletter
nawaz
sauces
cappuccino
tiffany
gettys
quibble
innocence
disguise
encapsulation
inquiry
wreck
intriguing
swastika
eliezer
bhagvad
rejoin
earbuds
incapable
edcuation
igcse
gossip
vanguard
viteee
camouflage
capacitance
gibraltar
chandragupta
eunuch
abhiyan
reschedule
electroneg
proliferation
nginx
docomo
synergy
histrionic
malcolm
mcgregor
unsupervised
yudkowsky
280
3m
5500
6x
730
816
920
950
ain
aired
bury
baker
cors
cried
celer
d7
dich
dbs
dll
duel
dalai
ecc
eloqu
fishes
foul
fico
gon
gust
graft
glands
hac
hound
hides
hanes
jm
jat
jem
kya
kasp
lys
loos
mw
ming
mally
mms
mids
moust
meryl
nod
nug
nhs
nelson
oled
oauth
pong
rg
rans
rsi
rath
rms
roses
ruther
sig
sage
t3
trench
toned
torah
uch
vicks
wt
wyn
wcd
xr
yol
zoned
##oby
##lux
##iard
##nels
##nox
##eous
##electric
##ugs
##uaries
##vol
##dl
##disc
##driver
##polar
##hak
##hua
##hwag
##xc
##bus
##bling
##bli
##29
##´t
##aton
##held
##herence
##rej
##onomy
induct
isl
isoprop
##ench
doo
toen
anushka
##aria
##alities
##itti
##ometry
##stop
##asan
##acart
##ooting
##idian
itachi
##kere
##olph
##iger
rex
reit
reinst
##add
##oper
##oping
mocha
orwell
weeb
##oneer
##rians
##rimin
##chip
makar
thats
##ctor
asi
##user
conway
encycl
alley
alarms
unse
unear
unman
unden
betta
usable
compiled
sober
soory
suction
##herjee
abstain
##unity
sean
amr
amid
amie
amnesia
goel
goggles
spurt
loch
##ande
##andme
plac
aces
acup
manic
managment
phishing
phogat
##ipot
##actus
##activity
impose
impost
appar
##assive
bye
cores
marie
marrow
donkey
##avage
aricent
exped
expelled
insta
##odel
colitis
outback
##ogo
perme
recieve
positives
pox
moreover
relocation
bruns
wrang
override
consists
consoles
deserving
boast
flats
flipped
warmer
carat
carbs
cahoots
##ictable
calf
caltr
caliph
##ianism
sexes
werew
businessmen
skunk
##ocet
medically
blacklist
blackmail
crr
infer
infants
helpless
keyp
kebab
##isson
remade
empt
addicting
corrosion
registry
puri
rsa
rswl
payoneer
classmates
formatted
indesign
songwriter
insured
insulators
netgear
detri
detach
leguminous
hairy
haruki
subhas
subatomic
terminate
elves
snoring
godrej
autop
assured
asshole
hearth
bodybuilder
tempt
coupe
metres
codevita
parrots
##ikala
eden
##matrix
ceg
purposely
wearable
100000
massless
lotr
cynical
barn
barber
barking
shortness
shortlisted
terrifying
statute
statistically
storyt
papaya
refers
fixer
sunil
sunflow
##ovas
sats
200mm
brainw
understands
midlife
promisc
cancun
##pirit
nationalized
footwear
speciality
citric
citrus
puffy
bittorrent
glac
##atta
gravitation
facilit
##ophile
situ
sitcom
malf
mastering
collapses
condesc
csat
graphical
ethic
inclusive
identities
identifier
denies
deniers
ramanu
karachi
heartless
revit
revised
revoke
medicinal
yorker
ghosh
globalisation
ecnr
rockstar
boob
misp
remembering
mightier
uploads
integrals
contrasting
hurtful
##50n
untr
driverless
hydrolysis
telev
pitches
sharif
##akhapatnam
philosophies
mutation
respectful
basement
##after
sensing
devi
devote
hugs
crossdress
malaysians
detectives
dhirub
knowingly
drove
commented
extraord
vita
8086
depositing
23andme
entrances
ultrasound
scratching
unknowingly
thermometer
mythological
tommen
dominance
forwarded
knead
lifts
cloths
administered
airborne
ebola
repairs
blindly
blindness
boosters
jerks
neurotrans
stacks
26th
venues
mosque
canonical
##aminophen
flavoured
silverback
diluted
affiliates
implicit
scaling
bathrooms
pools
dissolved
aimed
rumours
bacterium
peeves
luis
luffy
iiitd
cameron
investigators
altucher
homesick
permitted
rebirth
bharati
functionalities
celery
hyperb
30000rs
owes
pooja
afghans
biometric
derivatives
unfairly
comprehend
cereals
orthog
lagna
##ventional
jiu
jiit
1985
stereotyped
mmorp
ancestor
shampoos
molarity
shroud
shrinking
distrust
blankets
120k
palmistry
polymorphism
emerald
vibrant
aqua
tights
160r
imessages
vaccination
outsourced
propagation
kurdish
springs
apologized
aryans
vaseline
metaphysics
institutional
booths
shaver
conclusions
hypotheses
ribosomes
emperors
##attering
traditionally
supermassive
heterogeneous
sailor
rhyth
tropic
bungee
veterin
hierarch
cellulose
fiscally
dsm
##vanse
trillionaire
acetaminophen
877
crushed
fertilized
fragile
floppy
neighbours
unliked
battleship
hci
sindh
forecasting
stubhub
envelopes
jabong
pewter
dravidian
chalde
friendzone
unfortunate
reelect
reeves
supplied
hypertonic
turbulent
lilith
kidnap
counterpart
gcse
plastics
stadiums
reapply
ammun
kundli
kundalini
archaeology
vyvanse
herbivores
scrolling
arbitrage
linden
prisma
unnecessarily
thongs
quarters
parachute
raptor
ulcerative
gimm
1950s
brij
adrenaline
2030s
penguin
penguins
summarize
overwhelmingly
ponzi
pissed
kathmandu
multicellular
##igraphy
metropolitan
obscure
undergone
graffitti
follicle
monotheism
mukherjee
hydrocarbon
nephew
monuments
kangar
supernova
thumbnails
adequate
multiculturalism
nonsense
coaxial
swachh
##2dw
alligator
reluctant
raisins
utensils
hyperloop
cortisol
crowdsourcing
jhunjhunwala
biscuits
ousted
2040s
subwoofer
melanin
preprocessor
malleable
concorde
predominantly
kiosk
palsy
pappu
coelho
faridabad
telepathy
unsuccessful
jntu
runtime
ubiquit
intermolecular
overprotect
homeostasis
couchsurfing
ggsip
tungsten
₹30000
isosceles
doomsday
pertaining
buisness
elixir
ultrasonic
susceptible
gorgeous
gettysburg
kaspersky
mallya
ransom
rutherford
uchicago
wcdma
yolks
weebly
encyclopedia
undeniable
sooryavansham
impostor
brunswick
caltrain
dhirubhai
neurotransmit
graffittibooks
07
5am
5mm
6500
bd
bou
bfs
cic
cay
cout
cem
cpl
cush
c20
cfl
caves
dory
dix
dancers
eag
etern
fen
fug
flock
gw
gnu
gimp
hect
hmm
i10
iphoto
jared
jaland
jitsu
kate
kak
kits
kaur
krish
lid
lace
lope
m8
mcl
m40
nx
nab
oet
oval
pn
pile
pledge
pinc
phel
ration
sling
sinking
tg
tart
tidal
u0001
v1
vj
vince
vox
vime
wc
w3
wix
xero
yach
z1
zion
zig
पर
##tah
##tails
##tains
##rill
##rgy
##sw
##aux
##aita
##name
##notes
##gam
##zers
##kha
##vian
##pages
##mine
##ye
##flo
##found
##28
##rek
##reas
##info
inm
##orth
##enet
doha
dozen
tofu
anter
##arrow
##itian
##itism
##omast
##omyalgia
##icable
canola
##estion
forwards
##ilage
##ilai
thrift
##asst
##aca
befriend
beloved
stree
##idu
##amble
##ayette
##eca
##ecia
haj
##verbal
shore
shaz
shik
mohen
##utations
##urized
orm
orator
weir
##riel
##agus
indies
frying
maze
trunk
##ulent
##ulam
asic
##tha
enorm
encl
##inex
atatur
##osene
noted
noticing
unpl
uncut
##arti
indiape
##apes
##apuram
suede
abduction
##mental
##unches
seb
seize
sehwag
ammo
##rency
spencer
##ainted
##andha
ack
manly
scm
scat
intranet
##arded
ade
adware
preamble
##asses
timor
clare
cliches
cob
##ellist
##rawn
margar
marissa
johan
##dera
leased
##veland
##berts
arora
teasing
reselling
instability
##odus
blaming
##lesias
syed
contempt
disks
##phr
##phobic
overhead
considers
desal
invis
inviting
emission
hertz
techie
backbone
programmatically
belfort
sheer
sheila
collegium
helpline
matched
downey
marketplaces
salem
hummus
affidav
cardinal
prepares
struts
regress
purifiers
charities
planing
indul
moths
depl
airforce
meng
deter
watercol
##appan
legolas
factories
endless
endothermic
advices
provoke
submiss
subcult
fattening
popped
swan
swaraj
##graph
cultiv
snl
snoo
assim
##ullah
##llium
calligraphy
151
controllers
apost
openstack
##lander
kinderg
confession
cleans
cleavage
cleveland
fallon
dream11
##ontail
opted
optimum
sitemap
logit
raises
starred
slice
patrick
steakh
constants
connector
baron
barbar
completes
debunk
terrified
volatile
balkan
##uga
standardi
1887
practised
textures
urinary
angola
angellist
mustache
checklist
paw
pax
goldfish
##ovic
fullest
fullmetal
multimeter
turin
copilot
likers
pokemons
diffraction
summon
divisions
diagon
citi
citibank
considerations
gloss
gaya
forged
convict
personalized
malad
malala
radiant
gamech
holi
lyanna
149
stripes
funnel
savage
csr
cs50
bulim
cleaned
cleanest
cleaners
continuation
discretion
racists
maxwell
kerosene
eyeglasses
holden
##oka
spanking
merry
merkel
osell
oswald
magnification
pilg
booting
hydrate
seafood
##aws
chatbots
bandh
copywriter
palih
contributes
expresses
60s
coasters
predator
knit
regretting
subscriptions
madam
hiit
arrows
castration
waiters
waitlisted
hamas
titled
pathway
collectors
deviant
virtue
closes
jailbroken
leds
drogo
##slide
iima
vocational
scratched
syncing
wisest
mcb
mcat
cmos
##annel
tomboy
mascot
ubc
dominos
tendencies
bailey
ringing
ampere
conservatism
unsung
visionary
jamie
koi
kodi
scanf
berry
dumbbell
2600
healed
##anyu
converge
criticizing
appointing
appointments
creek
commandant
commandments
microwaves
kickboxing
refrigerators
cartilage
scalable
literate
150cc
fetus
wheelers
ocr
ocjp
participation
quadrup
headsets
picasso
renewed
spectrom
initialize
##mobi
paddle
reflecting
reflectors
hipster
constructing
munjal
##oplasty
##odynamic
memorise
fabrication
analogic
##guide
derivation
contestant
transplantation
cerber
dmv
1988
slightest
transitioning
barefoot
coalition
casualties
correlated
bumper
excellence
moveset
spamming
awaken
aquatic
vaish
controversies
5kgs
hooked
1974
assaulted
wbut
concerts
demonitisation
colombian
census
conceive
jeffrey
horizons
gpus
undes
sockets
lumps
nutritionally
downvoting
conservativespirit
skeleton
forbid
chamath
extraterrestrials
stabbed
iglesias
carbure
nusrat
stimul
stimulate
inexperienced
##otherapist
enlar
splits
moroccans
allele
bodybuilders
sunnyvale
piston
ankles
blurred
quotation
obstacle
threesomes
recurrence
charisma
enlargement
carbohydrate
synonymous
groin
opponents
chaotic
ascii
coworkers
trolling
unoffic
oscillator
falsifiable
##ecoin
radiator
radiologist
repealed
dlp
mozilla
frightening
m330
trigonometric
jenner
deodorants
pranic
proxima
dissociation
stabilizer
impediment
contradictory
treasure
unpred
abundance
bromide
tournaments
postponed
crystall
loophole
vaild
descended
cranberry
seperate
retrograde
voucher
indefinite
indefinitely
hijacked
multivitamins
resentment
cyclic
prosecution
glycolysis
polyamorous
fragrance
involuntary
sankranti
symphony
stitches
pigeons
jessica
tandon
webinars
##engineering
dispersion
fibromyalgia
cottontail
mellon
slyther
amphetamines
expatriates
cuddle
daikin
ooltah
redundant
epistemology
alleviate
steady
concession
leopards
prototyping
excitement
rashtriya
vichitra
trunc
debilitating
unblurred
durgapur
uzbek
fungus
rs1000
microorganisms
vipassana
seismic
interfering
relieving
saffron
trophies
unreasonable
apparatus
hearthstone
condescending
extraordinary
ubiquitous
overprotective
ggsipu
jalandhar
lopez
u0001f
vimeo
##omastia
shazam
ataturk
submissive
palihap
08
2am
260
310
510
aram
auss
bbs
bals
bpl
cation
cag
cess
cumin
d1
dse
dus
dres
ftm
gion
gape
gaga
hent
hra
jc
jy
jou
jai
kun
kish
kah
krist
koran
lenders
mop
m45
nun
nure
nall
ntt
numpy
oasis
pag
ppl
qnet
rour
sj
sif
sush
sails
sastra
tft
tss
tuck
towing
tango
uef
vance
vets
vlogs
wp
wpm
wilder
xm
yee
##oder
##lass
##cg
##tics
##tale
##rans
##sner
##saf
##ajo
##gies
##gous
##e0
##eat
##zal
##zip
##zai
##zhik
##kb
##kela
##vens
##vana
##mid
##most
##mberg
##hare
##ych
##yton
##fy
##fic
##fps
##bility
##butter
##42
##43
##27
##250
##atric
##heed
##rell
##reduce
##inis
##esai
##anine
##anix
##analy
innings
##encers
dodo
anon
anas
anecd
##around
##alone
##omatic
##stock
##lem
##etes
##edes
##eston
##asons
##isand
beast
##rokes
##rogate
##enta
##idy
##amai
bests
limb
##iru
##oliber
##igmatism
reag
##adors
##adero
##opecia
##seus
##sevak
##diest
##illin
##riac
proav
proactiv
##agiri
maul
exodus
cho
chil
chass
traces
megh
asym
deuter
##thy
ensl
enigma
atal
atasc
neoliber
##arer
alopecia
unim
unple
unarm
usability
compt
compli
compelled
compilers
##arten
##ection
soaps
##apy
peas
peac
abuses
amt
gore
goats
goodwill
spoon
anyways
afs
acute
acety
mana
scout
scoot
heil
imps
applock
makemy
adhar
aditya
##alling
preach
premi
timely
clap
clrs
coherent
coherence
workforce
##ramar
joc
lem
##quer
allbest
##pty
uplift
muff
blaster
outfits
earl
perth
perceptions
recapt
daylight
##upadi
finder
##inte
sys
reloc
serp
serie
brus
disreg
disruption
persona
##fts
overb
deserved
##orden
numeric
longev
carriage
themself
emailed
womens
hern
##erty
##ologous
##ensitive
realizing
##ypical
belive
justification
solv
wines
##itsar
blackout
playback
crs
rohing
reprint
societal
salam
salute
hadith
questioning
bigot
##tsburgh
corona
corolla
purr
redness
payer
##monaut
minicl
songwriting
##nex
biosc
insure
inscribed
depiction
depicting
righteous
fins
econometrics
facto
batting
surya
##azard
handgun
hardwood
obnox
mastiff
valar
filtered
childb
subord
subnet
##grid
mindfuck
nonpolar
specifics
guj
autopl
lessen
##ocket
122
##bras
apa
apu
apex
sleepiness
blockers
defec
parody
paracetam
##iko
eurof
amaze
psychics
psychosis
gaines
gainers
1930
foundations
freaking
publicity
sourav
wrongfully
determination
locom
litig
msn
massaging
magist
stepped
cysts
baroda
killings
debbie
volat
gateforum
microb
microbes
standalone
normalization
normalized
directories
pca
184
18000
reacted
masturbatory
britishers
researching
##aneering
saty
##raviolet
organise
communicator
landings
linking
midget
astigmatism
generalized
newsfeed
addressed
nationalistic
peters
diasp
diatomic
erl
##flation
##atti
gravy
pageant
inprove
##ophone
spotting
pricey
capitalized
malik
malibu
screenwriter
mayor
silencers
cracks
holland
towels
sonakshi
narayana
145
pressures
soundmagic
rehabilitation
##aunt
quantico
lawsuits
fearing
firered
graphite
racially
footballers
seemed
ramifications
ramadan
platonic
kargil
liberia
medicaid
osha
osmania
concil
pilsner
touristy
pm2
24th
sandler
nitride
tenor
##awa
cbd
ignite
ignition
recordings
crabs
burr
burp
icing
sqft
gifting
manufactures
pittsburgh
positioning
florence
totalitarian
##zygous
streaks
sportsman
madh
melodies
melisand
hamper
llp
sensual
handsets
dhl
carbonated
dui
admins
nyse
ironman
rajdeep
cosmonaut
ultraviolet
retrieved
grandma
cruises
wealthier
##ceries
mrna
flashlight
ivf
industrialization
masons
manipulating
gaana
gaussian
pascal
theorems
casimir
daro
nutanix
alienware
##102
pronunc
filler
soulmates
polythe
withdrawn
extremist
magician
ccp
ethere
imagin
nomen
winterfell
kozhik
##oosa
progressing
niece
fantasizing
sponsoring
##logist
mosfet
unborn
dedication
commander
splitting
##rollers
navajo
proposes
haters
sucking
assembled
enhancing
pillar
discussed
commissioner
commissioned
ejaculating
mapreduce
##chemy
jonathan
pitbulls
consistency
physicians
##oscope
bruised
phenyl
missionary
borrowing
simultaneous
syndicate
tapmi
##12dn
ineff
relativ
hashmap
pleasant
digested
3600
investigatory
bicycles
begun
calendars
guarded
altru
naprox
influencer
bml
durability
durga
##downloader
bounded
omaha
erections
wolfram
fraudulent
##ogenes
cooperation
keto
ketu
loudly
sasikala
brightness
creationism
hybris
mhz
1987
drafting
pedest
gigantic
granth
riot
deductions
licked
intercaste
ftre
negotiations
spraying
theatres
faults
tastes
tasted
multiples
yammer
auctions
tsar
hemoglobin
clarke
broadcasting
mindedness
explosions
lithuan
wrists
coordinator
attained
skept
##9999
vulgar
insulted
scooby
bronch
sailing
##itiya
porridge
sidhu
tracfone
paragraphs
gentlemen
transmitter
eyelids
contradicting
reunited
splinter
splunk
ddr4
overthrow
decompose
condensation
wormholes
confrontation
neighbourhood
fading
troubles
carboxy
prophets
subsidies
nirvana
sgpt
gnome
groceries
vowel
ascension
unicellular
himalayas
dwarves
microcontrollers
nostril
spontaneously
resurrect
embarrassment
determinism
fluoride
pwd
nostalgia
populist
populations
1200d
squirrel
disposable
pupils
prosecutor
accumulation
accumulate
zoosk
logarithm
odysseus
autobiographies
aboriginal
keratin
synthesized
indifference
acronyms
venomous
##aturated
handicapped
prolonged
m750n
m712dn
slavs
hologram
adreno
subsequently
siemens
sakura
devaluation
infertile
hesitant
mossad
maheshwari
spartan
salvador
pudding
shirdi
nexium
xfinity
unmotivated
2048
endocrine
aesthetically
sardesai
beheading
empathize
hemorrhoids
lubricant
##lasticity
apprentice
prequels
occasions
unexplainable
skyscrapers
anomaly
shayari
sponge
##zenegger
keynesian
subsurface
disproportionate
doodle
neuroplasticity
centauri
intimidating
soothing
manuscript
machiavelli
conventions
homicide
underestimated
schwarzenegger
predestined
begginers
vidyalaya
overreacting
zawar
##analysis
spielberg
monsanto
barclays
introspect
celeron
wynk
unmanned
amritsar
lochte
##ipotent
autopilot
malfoy
mispron
mmorpg
brijmohan
streep
invisibility
affidavit
logitech
copilotsearch
gamechanger
carburetor
unpredictable
uzbekistan
palihapitiya
dresden
hentai
nuremberg
rourkela
uefi
proavisor
atascadero
unpleasant
compliant
makemytrip
allbestlist
longevity
miniclip
biosciences
obnoxious
paracetamol
diaspora
melisandre
kozhikode
naproxen
2l
2h
3days
625
9k
a8
birl
brist
bmi
bnp
cvt
cunn
dul
dug
dances
dares
fis
fence
fern
fares
g20
hin
hos
hbase
ich
kear
kem
kung
kib
kha
kmph
lp
lance
lms
mia
mts
mnn
nal
naut
ober
prab
puma
png
r7
riv
rote
rave
rgb
rishi
sse
sath
td
t4
ting
tide
tame
tik
tying
tensions
tgc
ves
vnit
wer
wink
wider
wakes
x3
xolo
ym
yod
zay
zara
zimb
##obi
##lake
##tch
##ture
##tok
##rano
##gec
##68
##62
##uren
##zel
##vp
##vine
##vara
##want
##wani
##pin
##pec
##pill
##phere
##pox
##mies
##hati
##hwar
##fel
##file
##fru
##fold
##x7
##xes
##bags
##96
##jot
##inqu
##inburgh
##anyp
##onation
inu
inline
##orie
##orra
isles
doth
toad
anur
##arning
##arcer
##itone
andorra
cane
canoe
##ilical
##asic
##ishe
##roject
##rosc
##rosis
##roopers
sta
stutter
stinson
##amoto
##otax
haired
limp
##verly
##igent
rearr
reyn
shorth
##opa
##opin
mohan
##uta
##sex
##dile
##urse
wei
como
##imanyu
##umen
fringe
quir
mae
maver
chy
chise
thatcher
truman
asana
dew
##usional
enum
enhan
##antics
nemo
##esson
notor
notar
alma
alken
alchemy
unil
unsp
bet365
compost
##apix
peels
pega
pepto
abt
abomin
seized
amer
amen
amel
amma
goodnight
spill
spook
spins
acs
acro
sciss
##lohex
##ipat
hemat
intact
imposed
impending
imperson
implements
##uder
append
adoles
clarin
coz
workstation
donors
##ivore
newcom
allusion
##abel
##abwe
accru
upan
upright
upfront
arund
resize
reseller
resnick
##odo
##odin
blouse
blunders
meanwhile
##emate
colbert
colloqu
perj
daytime
poisson
examiner
prud
syl
sa2
sait
brun
ches
electra
desi
incans
incarcer
smoot
polyp
underne
preposition
flaunt
warrants
carre
monit
monks
monjee
emmy
emacs
calicut
##erton
travers
develope
realization
skating
fungal
##ocur
solips
twists
seekers
crane
crpf
roberts
decid
decoration
nowzar
simile
remar
addanyp
charitable
mathbb
imam
minh
governed
##co3
motog
biome
biopic
insider
viewpoint
##mson
drains
technica
favourable
greatness
##mean
employable
endomet
breach
brewing
handbag
hardworking
centimeters
evenly
generous
sentenced
guang
snip
##perform
distress
##ockets
gmt
126
156
##bike
##avement
retreat
retiring
##brand
behalf
##arshan
extrad
weeknd
##center
defective
deflation
causality
lightening
##ikar
losers
editions
edinburgh
civils
attracting
attractiveness
##ontology
demography
panicking
taxpay
irma
austrian
headline
headquar
snapst
##haran
machin
machina
iitd
supercon
msrit
expects
barney
shortlist
oppression
terribly
norris
nightcl
balm
papa
refract
practition
mustaches
lowered
sidebar
linus
intelligible
cheaply
161
understandable
roms
dailymotion
accessibility
##piration
hitachi
##ronics
islamia
diast
puc
eragon
skincare
typescript
varieties
##merge
husk
crackers
cooks
holl
147
stripper
##prom
hypere
##riti
##comfort
bhat
bharti
ethane
abscon
influx
athena
namespace
##keye
candidacy
fibers
214
403
halogens
circus
quitted
sadh
innovator
figo
cannon
icf
##axed
60hz
capturing
untaxed
knot
violated
semicol
gyming
benin
psychopathic
madonna
rotational
certainty
fedora
dhaka
fishy
pulleys
conditioned
narcos
aiib
sapient
cosplay
roulette
colonizing
cruising
mcu
thoughtworks
##annah
mrf
authoritative
sdl
masc
librarian
resistivity
royalties
samuel
samoa
baj
35mm
halliday
crotch
heaviest
administrators
##mmc
unsaturated
eb2
indication
indicated
octal
chairs
countertop
nazism
rooft
keepsafe
withdrawing
shipment
repeats
##ilingus
seeding
defeating
shepherds
berks
optimistic
migrain
convergent
believable
wiping
mediums
kickasst
substrate
renounce
suitcase
ahai
299
interpol
configur
proudest
ejaculated
cocktails
turbotax
editorial
spinach
compressive
gallbl
##kho
breathaly
stalked
reflects
vanished
teddy
gunshot
##niak
investigated
bolton
bbq
napa
piping
sears
memorizing
toilette
draupadi
##charged
linguists
hyperlink
analogies
hunted
gangtok
pooping
thrilling
coachings
toner
##ourseware
bothers
tunnels
brightest
aggressively
pedig
exploit
exploded
neuroscient
emerged
peoplesoft
synchronization
doubly
doubles
reproducing
1972
electrolysis
600d
committees
dysfunctional
servlet
servicing
distinguishes
incorporating
nudes
uptu
varys
bootstra
arrogance
meritocracy
revolutions
threading
saturdays
cardiovas
drummer
ingredient
orthodont
dowload
pancreas
eighteen
recreate
estimation
quarterbacks
439
hexagon
antennas
armenians
coefficients
tether
roadside
inevit
disgusted
redeemed
barbara
splash
monopolistic
recipients
svnit
tajik
inequalities
jarvis
thirteen
condenser
condensate
miserables
fulfillment
pushes
polymerase
recalling
refreshing
glyc
hoover
omnisc
cloudera
reminds
erupts
incubation
decorations
woz
landlords
observing
nickelback
telecommunications
crawl
misunderstand
uninterest
backpacking
azerbaijanis
tearing
h2so4
megapix
pennies
determinants
forthcoming
hydraulics
militia
invertebr
filmmakers
categorical
overheard
m605
m606x
heredity
opencourseware
multivar
olympiads
polynomials
technicians
hkust
##orrents
intentions
cassandra
dreadlocks
vandal
mudra
transexual
travis
dehydrated
monocytes
enthusiasts
umbilical
vigil
lolipop
handicraft
abortions
parasites
inhaling
chakra
brackets
cranial
a53
tantrum
vicodin
ligament
subsequent
gynecomastia
maximise
prefixes
devalue
480p
beeping
abhimanyu
mkv
reefs
quizzes
percocet
kayak
oyster
fraternity
degrading
aesthetics
rivalry
emphasis
inhabited
flammable
immersive
derma
nichol
neanderthal
palindrome
dartmouth
cofounder
prioritize
krazy
dzire
swayam
cheetahs
hygienic
counsellor
bismol
handcuffs
contributors
interpreter
arrears
northwestern
sigmund
₹25000
calibr
caterpill
messeges
bridesmaid
gaurav
smoother
paribas
concurrent
lecter
wistful
toptal
quikr
welsh
zimmer
reimburse
sufism
painkillers
920m
hackere
##discipl
permeability
wrangler
detrimental
brainwashed
ramanujan
orthogonal
chaldeans
eagles
eternity
phelps
mohenjo
scattered
claremont
standardized
enlarged
slytherin
gionee
wilderness
reagent
chassis
unarmed
premiership
childbirth
autoplay
conciliation
pronunciations
nomencl
ineffective
bronchitis
cunnilingus
zimbabwe
dothan
anurag
reynolds
chiseled
alkenes
clarinet
underneath
nowzaradan
addanyproject
taxpayers
headquarters
migraines
kickasstorrents
cardiovascular
hackerearth
02
430
512
7s
787
aed
ais
aps
bilingual
cid
cres
crest
cited
caching
cunning
dora
dude
eis
gow
gout
ghar
gowns
h3
hart
hust
ik
iin
iced
jn
ks
kow
ked
kud
kep
kollywood
kij
kgb
klon
ksa
kriya
lr
lh
l4
lse
lass
lars
lda
mould
moose
moll
mika
n2
niser
oed
phe
pause
pnr
qi
r2
rames
rivals
s1
sorrow
tic
tec
tupac
uh
uav
vss
vib
vuit
wass
wpa
warts
xd
yak
yarn
zum
zipper
##o4
##ci
##tar
##tzer
##rang
##range
##gd
##gery
##gians
##uil
##uld
##zan
##zepam
##kv
##kwik
##vs
##vik
##valds
##wit
##wana
##mq
##making
##hale
##5u
##yt
##yons
##far
##fied
##bly
##bish
##qen
##atars
##hey
theological
##ervices
inversely
##orces
##owulf
##enh
##enoid
##inga
togo
toaster
anj
##arity
##alk
##alers
##itate
##omical
##icus
##ionage
##ilm
thirt
##asal
##academy
##isive
beet
beaver
beowulf
stag
strokes
##amala
itil
libel
##irat
##oly
##olta
##igil
##ighed
##igiri
##ceph
reiki
##adm
##adasha
shred
shrug
##opsis
mog
withhold
##agm
comets
##earing
##earable
##iman
##umala
ques
maven
ch2
tramp
truff
##cturn
##ulous
mea
dee
defore
##usd
enqu
enables
enabling
atif
neal
##essional
##osium
alcat
altered
##blet
unin
unaccount
unbalanced
usmc
##apova
pegging
peyton
whore
whoever
##herst
abys
##acker
seren
amuse
amherst
spond
##endale
plur
##ighty
aches
mann
phara
scik
scada
##loids
##aky
hep
heel
hemp
heats
appe
appstore
adblock
preempt
timed
timest
##idean
clot
coh
cox
##usters
mariner
leeco
##ivitis
##ilearn
accusing
arche
aruba
muffin
intership
interiors
teases
teasp
instacart
##izen
bluff
blaine
##emic
outward
outbound
##ogly
posing
prescrib
##ubes
poc
##siology
pric
contaminated
brighter
disin
dispar
disobe
cheney
counties
conson
nocturn
invades
invisal
underworld
visakhapatnam
flipping
carrer
caulf
monop
ems
herze
musso
mussol
realities
hels
backs
differentiated
shem
sheen
justifiable
soles
solitary
solenoid
blacklisted
schmid
crunches
mater
decrimin
decoder
109
keanu
primates
purify
puranas
aviv
##ashop
indra
##nered
##codile
motel
motives
bibli
delusional
insulator
insensitive
productively
drought
watergate
favorable
fined
financed
surah
handy
camero
catan
catast
catalog
centos
centric
socializing
healthily
posterior
swamy
powering
##grain
mindtree
psg
nonfiction
elli
sentiments
guant
autof
forearms
callback
154
##bibo
##othy
bodyguard
painter
goto
memorial
##hedral
##hedrine
showc
restroom
cellphones
morrison
##rett
breakers
latt
freestyle
raids
characterize
##amsa
putty
putlocker
patcher
magna
steaks
stevens
##uxe
shorten
oppress
sourcing
301
dogg
doggy
##click
cutter
cirrh
microst
alcoholism
informatics
checkup
117
111
suny
solarcity
suggesting
brita
satir
satya
origami
##ographical
filepile
multitas
geass
geared
503
linkis
waits
aster
trackers
originals
torvalds
summ
keylog
protagonist
##aurus
precure
specializations
puja
considerable
glenn
mathematica
gayle
activists
pageview
horrif
malaga
##henga
gamification
cookware
celebs
narsee
narayan
collider
collides
rankine
bulky
secretive
squirting
hyperm
departed
##comb
bhilai
continually
electricians
discreet
weaken
homologous
sanity
##shine
##shift
conversions
atheistic
treason
israelites
staffing
critique
doctoral
##mingham
2178
innate
##rabbit
revoked
tamilian
hpv
circ6
circ5
circ4
circ11
##sibility
rockwell
torrenting
youngsters
mornings
combining
misused
sudoku
robust
argon
argued
copywriting
hacksaw
rentals
icwa
stressing
burners
historian
hydrocodone
sharapova
totaling
kisser
kissinger
harvest
heaters
almighty
occurrence
planted
##oticed
scenic
espionage
constitute
angela
hangs
##jiang
exchanger
initiation
hdtv
fundsindia
mirage
strategically
synopsis
8051
##agnosed
mounted
cigars
mahadasha
mccon
purest
equivalence
witcher
sdhc
tomcat
hawkeye
mashed
deskjet
gauss
oceaneering
bowel
niches
nicobar
jaqen
dominatrix
weathering
baum
treehouse
cas9
cubs
cuomo
daring
shuts
300k
300grain
mandir
##101
sequels
crocodile
fanatic
azor
furry
chipotle
aerodynamics
factorize
directional
extremists
threatens
tribal
dellhi
nomad
toothache
neurot
scanners
powershell
bengalis
##track
##hops
akamai
cowboy
copyrights
mosques
abolition
faithful
fifteen
accompany
auditions
simplilearn
affiliations
navjot
olac
tumors
buffering
assumption
mortg
ashwag
150k
##nbc
trickiest
eskim
polaris
bioengineering
cosmopol
##nett
srin
tufts
evaluating
dvds
hedgehog
stalkers
taped
lyricist
cabinets
boner
##rospect
wholesaler
wholesalers
whisper
interpretations
pokest
##ographer
1966
1967
voluntarily
bobby
rowan
seltzer
foamy
jawbone
biomass
##200u
roswell
orthoped
cadets
00am
bothering
dummy
mgm
tuning
tuned
explodes
retainer
irritates
circumstance
inkjet
amplify
legislature
synchronized
1946
1941
unconventional
awakened
dropship
allegiance
cramping
elevated
elevators
implies
concealer
adjustment
disciples
cruelest
serviced
indoors
stained
seminal
explosive
##raphic
dalit
farting
##rophic
lobsters
arrangements
drumming
pancreat
brady
vaporizer
onset
leakage
guessing
sidious
hazards
bunker
eyeliner
geographically
wrestlers
rewarded
##economic
birmingham
sopranos
cyclist
crusades
cfo
d3200
decompos
climates
cockroach
d5500
d5300
tirumala
##utsu
deception
prophecy
inexplic
uscis
reversing
ryanair
restarting
kirk
symposium
##shaft
duckworth
flicker
swiping
shameful
swearing
endorsement
crawling
misunderstanding
ingested
laxative
euthanize
giraffes
portraits
ranging
confeder
polygamous
daredev
dirtiest
militant
freemasons
pupil
zeroes
pistols
oste
affectionate
timetravel
exponent
bromine
aesthetic
empirically
##hawk
epsom
traval
survivors
falcons
inhuman
contrary
carpets
##desk
z3200
nauseous
inhaler
anarchism
stakehold
feathers
paralyzed
baptism
tacos
##runner
gynecologist
sculpture
gabriel
brahmos
pivotal
dildos
parlour
franco
disproven
murderers
aggregator
gautama
a7000
ucsd
confucianism
hypnotize
nibiru
regenerate
depreciate
microsd
benifits
bazaar
kinematics
kombat
hairline
blatant
overclock
dignity
gawker
kpis
kubo
m506x
inconsistent
pronouns
psychedelic
disqualified
macaroni
bargain
dodge
paraphrase
supremacy
adulterated
denser
m20x
rutgers
z5200
limerice
seamless
skittles
repellent
oxymoron
contraceptive
newtons
watsapp
evacuate
euclidean
rajnikanth
##rochemical
pythag
akkadians
m604dn
gullible
##govina
mobikwik
chhatrapati
blizzard
repository
surrogacy
stammering
reincarnated
jmeter
nugget
ammunition
gimmick
neurotransmitters
dixit
margarine
desalination
quadruple
nallamala
anasazi
anecdotes
comptia
scooty
##integr
solvents
rohingya
gujrat
magistrate
volatility
oshawa
ethereum
relativistic
birla
mnnit
nautical
yodlee
shorthand
mavericks
abominable
saitama
rooftop
berkshire
gallbladder
breathalyzer
pedigree
wozniak
nicholson
swayamsevak
crescent
kijiji
klonopin
oedipus
vuitton
thirties
deforestation
unaccounted
scikit
invisalign
caulfield
herzegovina
mussoorie
mussolini
decriminal
cirrhosis
multitasking
ashwagandha
cosmopolitan
1x
2b
2kg
460
6d
7c
8g
80000
925
aee
[...]
